{
  "version": "1.0",
  "truncation": null,
  "padding": null,
  "added_tokens": [
    {
      "id": 0,
      "content": "<PAD>",
      "single_word": false,
      "lstrip": false,
      "rstrip": false,
      "normalized": false,
      "special": true
    },
    {
      "id": 1,
      "content": "<UNK>",
      "single_word": false,
      "lstrip": false,
      "rstrip": false,
      "normalized": false,
      "special": true
    },
    {
      "id": 2,
      "content": "<BOS>",
      "single_word": false,
      "lstrip": false,
      "rstrip": false,
      "normalized": false,
      "special": true
    },
    {
      "id": 3,
      "content": "<EOS>",
      "single_word": false,
      "lstrip": false,
      "rstrip": false,
      "normalized": false,
      "special": true
    }
  ],
  "normalizer": null,
  "pre_tokenizer": {
    "type": "ByteLevel",
    "add_prefix_space": false,
    "trim_offsets": true,
    "use_regex": true
  },
  "post_processor": null,
  "decoder": {
    "type": "ByteLevel",
    "add_prefix_space": true,
    "trim_offsets": true,
    "use_regex": true
  },
  "model": {
    "type": "BPE",
    "dropout": null,
    "unk_token": "<UNK>",
    "continuing_subword_prefix": null,
    "end_of_word_suffix": null,
    "fuse_unk": false,
    "byte_fallback": false,
    "ignore_merges": false,
    "vocab": {
      "<PAD>": 0,
      "<UNK>": 1,
      "<BOS>": 2,
      "<EOS>": 3,
      "!": 4,
      "\"": 5,
      "&": 6,
      "'": 7,
      "(": 8,
      ")": 9,
      ",": 10,
      "-": 11,
      ".": 12,
      "/": 13,
      "1": 14,
      "2": 15,
      "3": 16,
      "4": 17,
      "5": 18,
      "6": 19,
      "8": 20,
      "9": 21,
      ":": 22,
      ";": 23,
      "?": 24,
      "A": 25,
      "B": 26,
      "C": 27,
      "D": 28,
      "E": 29,
      "F": 30,
      "G": 31,
      "H": 32,
      "I": 33,
      "J": 34,
      "K": 35,
      "L": 36,
      "M": 37,
      "N": 38,
      "O": 39,
      "P": 40,
      "Q": 41,
      "R": 42,
      "S": 43,
      "T": 44,
      "U": 45,
      "V": 46,
      "W": 47,
      "X": 48,
      "Y": 49,
      "Z": 50,
      "a": 51,
      "b": 52,
      "c": 53,
      "d": 54,
      "e": 55,
      "f": 56,
      "g": 57,
      "h": 58,
      "i": 59,
      "j": 60,
      "k": 61,
      "l": 62,
      "m": 63,
      "n": 64,
      "o": 65,
      "p": 66,
      "q": 67,
      "r": 68,
      "s": 69,
      "t": 70,
      "u": 71,
      "v": 72,
      "w": 73,
      "x": 74,
      "y": 75,
      "z": 76,
      "â": 77,
      "ĉ": 78,
      "Ċ": 79,
      "č": 80,
      "Ġ": 81,
      "Ģ": 82,
      "Ļ": 83,
      "čĊ": 84,
      "Ġt": 85,
      "he": 86,
      "Ġa": 87,
      "ou": 88,
      "Ġs": 89,
      "in": 90,
      "Ġm": 91,
      "Ġw": 92,
      "re": 93,
      "ha": 94,
      "nd": 95,
      "Ġthe": 96,
      "Ġb": 97,
      "is": 98,
      "or": 99,
      "ll": 100,
      "Ġf": 101,
      "er": 102,
      "on": 103,
      "it": 104,
      "Ġd": 105,
      "es": 106,
      "Ġc": 107,
      "Ġl": 108,
      "Ġn": 109,
      "Ġo": 110,
      "Ġth": 111,
      "Ġy": 112,
      "en": 113,
      "ĠI": 114,
      "Ġh": 115,
      "ar": 116,
      "Ġyou": 117,
      "Ġp": 118,
      "hat": 119,
      "Ġto": 120,
      "ed": 121,
      "Ġhe": 122,
      "ot": 123,
      "Ġof": 124,
      "Ġand": 125,
      "ve": 126,
      "an": 127,
      "ow": 128,
      "ing": 129,
      "om": 130,
      "st": 131,
      "Ġg": 132,
      "at": 133,
      "Ġbe": 134,
      "Ġin": 135,
      "se": 136,
      "Ġha": 137,
      "ce": 138,
      "Ġmy": 139,
      "et": 140,
      "ay": 141,
      "ld": 142,
      "le": 143,
      "ut": 144,
      "ir": 145,
      "Ġme": 146,
      "im": 147,
      "ith": 148,
      "gh": 149,
      "ch": 150,
      "Ġnot": 151,
      "ill": 152,
      "Ġis": 153,
      "'s": 154,
      "Ġthat": 155,
      "And": 156,
      "Ġe": 157,
      "oo": 158,
      "ke": 159,
      "Ġfor": 160,
      "Ġu": 161,
      "Ġwe": 162,
      "The": 163,
      "as": 164,
      "Ġit": 165,
      "ad": 166,
      "Ġwith": 167,
      "ent": 168,
      "ri": 169,
      "Ġyour": 170,
      "ght": 171,
      "al": 172,
      "Ġhis": 173,
      "her": 174,
      "Ġst": 175,
      "ra": 176,
      "Ġthou": 177,
      "id": 178,
      "our": 179,
      "ly": 180,
      "Ġthis": 181,
      "Ġhim": 182,
      "Ġli": 183,
      "Ġhave": 184,
      "Ġre": 185,
      "ome": 186,
      "ĠW": 187,
      "Ġso": 188,
      "Ġk": 189,
      "ore": 190,
      "ord": 191,
      "Ġon": 192,
      "ur": 193,
      "Ġas": 194,
      "ver": 195,
      "ould": 196,
      "ĠH": 197,
      "--": 198,
      "ain": 199,
      "Ġde": 200,
      "Ġwill": 201,
      "hi": 202,
      "ood": 203,
      "Ġdo": 204,
      "ro": 205,
      "us": 206,
      "Ġsha": 207,
      "ck": 208,
      "est": 209,
      "ea": 210,
      "AN": 211,
      "am": 212,
      "ĠS": 213,
      "ess": 214,
      "ion": 215,
      "Ġher": 216,
      "ER": 217,
      "and": 218,
      "th": 219,
      "Th": 220,
      "US": 221,
      "Ġse": 222,
      "Ġlo": 223,
      "Ġthy": 224,
      "IN": 225,
      "AR": 226,
      "Ġno": 227,
      "ge": 228,
      "EN": 229,
      "Ġsu": 230,
      "Ġan": 231,
      "ĠA": 232,
      "Ġall": 233,
      "ĠM": 234,
      "ake": 235,
      "ĠC": 236,
      "ter": 237,
      "Ġ'": 238,
      "ell": 239,
      "Ġbut": 240,
      "To": 241,
      "il": 242,
      "ru": 243,
      "Ġsp": 244,
      "Ġfa": 245,
      "if": 246,
      "ct": 247,
      "ight": 248,
      "Ġshall": 249,
      "han": 250,
      "ear": 251,
      "Ġkn": 252,
      "ĠB": 253,
      "Ġthee": 254,
      "That": 255,
      "ES": 256,
      "Ġare": 257,
      "ho": 258,
      "Ġv": 259,
      "ĠĠ": 260,
      "rom": 261,
      "ĠL": 262,
      "ĠG": 263,
      "Ġour": 264,
      "Ġby": 265,
      "ast": 266,
      "Ġsh": 267,
      "art": 268,
      "ON": 269,
      "Ġne": 270,
      "ine": 271,
      "Ġman": 272,
      "ous": 273,
      "ard": 274,
      "qu": 275,
      "Ġam": 276,
      "sel": 277,
      "ĠP": 278,
      "end": 279,
      "Ġup": 280,
      "ĠF": 281,
      "Ġmu": 282,
      "ST": 283,
      "ĠO": 284,
      "one": 285,
      "nt": 286,
      "Ġat": 287,
      "'ll": 288,
      "out": 289,
      "OR": 290,
      "Ġcom": 291,
      "ie": 292,
      "res": 293,
      "ind": 294,
      "hich": 295,
      "hen": 296,
      "ant": 297,
      "Ġgood": 298,
      "ong": 299,
      "em": 300,
      "Ġlord": 301,
      "ive": 302,
      "Ġgo": 303,
      "Ġshe": 304,
      "Ġcon": 305,
      "OL": 306,
      "ĠThe": 307,
      "oth": 308,
      "Ġfrom": 309,
      "ven": 310,
      "ĠN": 311,
      "ul": 312,
      "ry": 313,
      "Ġwhat": 314,
      "row": 315,
      "ere": 316,
      "here": 317,
      "ble": 318,
      "Ġbl": 319,
      "ers": 320,
      "AL": 321,
      "Ġlove": 322,
      "Ġwas": 323,
      "Ġknow": 324,
      "ure": 325,
      "Ġmore": 326,
      "Ġsw": 327,
      "Ġwould": 328,
      "Ġthem": 329,
      "pp": 330,
      "ath": 331,
      "Ġcan": 332,
      "Ġpr": 333,
      "ep": 334,
      "Ġtheir": 335,
      "au": 336,
      "Ġnow": 337,
      "all": 338,
      "But": 339,
      "Ġhat": 340,
      "ic": 341,
      "self": 342,
      "ĠD": 343,
      "You": 344,
      "ost": 345,
      "el": 346,
      "Ġthey": 347,
      "ĠE": 348,
      "Ġthan": 349,
      "fe": 350,
      "Ġsir": 351,
      "Ġus": 352,
      "LE": 353,
      "Ġar": 354,
      "ort": 355,
      "ink": 356,
      "ate": 357,
      "Ġor": 358,
      "Ġthere": 359,
      "IO": 360,
      "are": 361,
      "Ġsay": 362,
      "Ġwor": 363,
      ".--": 364,
      "Ġif": 365,
      "reat": 366,
      "Ġhere": 367,
      "ves": 368,
      "ol": 369,
      "hy": 370,
      "ook": 371,
      "ak": 372,
      "ame": 373,
      "ng": 374,
      "Ġlike": 375,
      "Ġhath": 376,
      "ather": 377,
      "Ġwell": 378,
      "Ġlet": 379,
      "TH": 380,
      "od": 381,
      "ig": 382,
      "Ġj": 383,
      "For": 384,
      "Ġsee": 385,
      "CH": 386,
      "ĠT": 387,
      "ue": 388,
      "Ġthen": 389,
      "Ġdis": 390,
      "Ġone": 391,
      "um": 392,
      "ound": 393,
      "Ġpl": 394,
      "Ġdid": 395,
      "fore": 396,
      "other": 397,
      "Ġshould": 398,
      "EL": 399,
      "Ġun": 400,
      "Ġmay": 401,
      "ING": 402,
      "Ġr": 403,
      "gain": 404,
      "Ġmad": 405,
      "IA": 406,
      "RO": 407,
      "Ġmake": 408,
      "ance": 409,
      "Ġbr": 410,
      "un": 411,
      "Ġcome": 412,
      "Ġho": 413,
      "Ġqu": 414,
      "ĠWhat": 415,
      "Ġmust": 416,
      "ice": 417,
      "eak": 418,
      "Ġupon": 419,
      "very": 420,
      "Ġsa": 421,
      "ity": 422,
      "ĠTh": 423,
      "Ġwhich": 424,
      "Ġout": 425,
      "Ġwere": 426,
      "pe": 427,
      "ime": 428,
      "Ġhad": 429,
      "As": 430,
      "Ġtoo": 431,
      "ĠR": 432,
      "Ġpro": 433,
      "ire": 434,
      "IUS": 435,
      "KING": 436,
      "Ġey": 437,
      "Ġheart": 438,
      "Ġsuch": 439,
      "Ġtru": 440,
      "Ġ\"": 441,
      "Ġpo": 442,
      "ish": 443,
      "Ġen": 444,
      "My": 445,
      "Ġwhen": 446,
      "ies": 447,
      "What": 448,
      "Ġhand": 449,
      "pt": 450,
      "orn": 451,
      "ĠK": 452,
      "ness": 453,
      "ved": 454,
      "Ġhon": 455,
      "ave": 456,
      "Ġex": 457,
      "ĠAnd": 458,
      "Ġagain": 459,
      "ough": 460,
      "ist": 461,
      "Ġbo": 462,
      "ence": 463,
      "Ġal": 464,
      "Ġyet": 465,
      "IR": 466,
      "wn": 467,
      "Ġwho": 468,
      "hed": 469,
      "ise": 470,
      "eet": 471,
      "ose": 472,
      "Ġspeak": 473,
      "ff": 474,
      "ass": 475,
      "ick": 476,
      "urn": 477,
      "Ġoff": 478,
      "Ġmine": 479,
      "Ġthese": 480,
      "Ġthink": 481,
      "Ġsome": 482,
      "ack": 483,
      "ĠHe": 484,
      "Ġfo": 485,
      "If": 486,
      "ARD": 487,
      "AM": 488,
      "ther": 489,
      "With": 490,
      "Ġhea": 491,
      "Ġfri": 492,
      "LO": 493,
      "ings": 494,
      "Ġfather": 495,
      "Ġfl": 496,
      "Ġgreat": 497,
      "In": 498,
      "ady": 499,
      "ful": 500,
      "Ġtime": 501,
      "ESS": 502,
      "Ġab": 503,
      "CE": 504,
      "ĠJ": 505,
      "ust": 506,
      "own": 507,
      "way": 508,
      "Ġgive": 509,
      "de": 510,
      "to": 511,
      "Ġhow": 512,
      "Ġday": 513,
      "ation": 514,
      "Ġri": 515,
      "ANT": 516,
      "He": 517,
      "Ġbre": 518,
      "ĠBut": 519,
      "ince": 520,
      "Ġmuch": 521,
      "not": 522,
      "Ġcha": 523,
      "Ġmost": 524,
      "Ġtake": 525,
      "nder": 526,
      "aster": 527,
      "age": 528,
      "ress": 529,
      "Ġtell": 530,
      "Ġnever": 531,
      "AT": 532,
      "Ġwhere": 533,
      "Ġfriend": 534,
      "ag": 535,
      "Ġco": 536,
      "Of": 537,
      "ci": 538,
      "ĠYou": 539,
      "entle": 540,
      "Ġdes": 541,
      "IL": 542,
      "Ġgra": 543,
      "ull": 544,
      "Ġart": 545,
      "ors": 546,
      "Ġlea": 547,
      "Ġhear": 548,
      "Ġmen": 549,
      "Ġro": 550,
      "Ġmar": 551,
      "ign": 552,
      "ither": 553,
      "Ġbet": 554,
      "Ġdoth": 555,
      "Ġlook": 556,
      "ef": 557,
      "Ġlife": 558,
      "RI": 559,
      "Ġblood": 560,
      "Ġtw": 561,
      "Ġword": 562,
      "Which": 563,
      "ree": 564,
      "ite": 565,
      "oul": 566,
      "Ġfair": 567,
      "ment": 568,
      "Ġdeath": 569,
      "Be": 570,
      "SE": 571,
      "li": 572,
      "ĠKing": 573,
      "ĠY": 574,
      "ase": 575,
      "the": 576,
      "ount": 577,
      "Ġwr": 578,
      "ert": 579,
      "LA": 580,
      "igh": 581,
      "Ġpart": 582,
      "ss": 583,
      "Ġfear": 584,
      "Ġgentle": 585,
      "This": 586,
      "Ġtr": 587,
      "IC": 588,
      "red": 589,
      "So": 590,
      "UC": 591,
      "Ġown": 592,
      "PH": 593,
      "Ġany": 594,
      "FF": 595,
      "ool": 596,
      "aught": 597,
      "ap": 598,
      "itt": 599,
      "ars": 600,
      "ET": 601,
      "Ġple": 602,
      "ee": 603,
      "io": 604,
      "ĠIf": 605,
      "Ġsweet": 606,
      "Ġheaven": 607,
      "Ġper": 608,
      "man": 609,
      "Ġsc": 610,
      "lo": 611,
      "Tis": 612,
      "Who": 613,
      "Ġra": 614,
      "Ġson": 615,
      "Ġser": 616,
      "Ġad": 617,
      "Ġmade": 618,
      "Ġtrue": 619,
      "Ġeyes": 620,
      "Ġcall": 621,
      "ide": 622,
      "Ġnight": 623,
      "hing": 624,
      "Ġcomm": 625,
      "Ġother": 626,
      "ans": 627,
      "rown": 628,
      "Ġwh": 629,
      "ward": 630,
      "Ġvery": 631,
      "Ġhast": 632,
      "bl": 633,
      "Ġcannot": 634,
      "orrow": 635,
      "ction": 636,
      "me": 637,
      "Ġke": 638,
      "AND": 639,
      "How": 640,
      "CA": 641,
      "When": 642,
      "ered": 643,
      "Ġworld": 644,
      "Ġhonor": 645,
      "tis": 646,
      "Ġpre": 647,
      "Ġking": 648,
      "able": 649,
      "Ġapp": 650,
      "Ġstr": 651,
      "ving": 652,
      "Ġsl": 653,
      "ĠGod": 654,
      "ac": 655,
      "Ġbeen": 656,
      "Ġpray": 657,
      "llow": 658,
      "Ġdone": 659,
      "Thou": 660,
      "UR": 661,
      "Ġwit": 662,
      "per": 663,
      "sw": 664,
      "nce": 665,
      "Ġmo": 666,
      "Ġim": 667,
      "QU": 668,
      "een": 669,
      "ber": 670,
      "Ġway": 671,
      "TI": 672,
      "Ġaf": 673,
      "ace": 674,
      "aint": 675,
      "ud": 676,
      "Ġaway": 677,
      "Ġcomp": 678,
      "Ġru": 679,
      "ĠWhy": 680,
      "Or": 681,
      "Ġname": 682,
      "for": 683,
      "EM": 684,
      "IRST": 685,
      "Is": 686,
      "cc": 687,
      "Ġle": 688,
      "FIRST": 689,
      "Ġwar": 690,
      "Ġla": 691,
      "Ġnor": 692,
      "Ġbeg": 693,
      "Ġcl": 694,
      "less": 695,
      "ps": 696,
      "ENT": 697,
      "ĠLord": 698,
      "ĠNo": 699,
      "Ġbrother": 700,
      "ks": 701,
      "Ġmight": 702,
      "We": 703,
      "Ġcont": 704,
      "Ġpres": 705,
      "Ġwom": 706,
      "iss": 707,
      "ears": 708,
      "Ġthought": 709,
      "There": 710,
      "ife": 711,
      "CON": 712,
      "Ġstand": 713,
      "Ġnoble": 714,
      "Ġleave": 715,
      "DU": 716,
      "Where": 717,
      "Ġhead": 718,
      "It": 719,
      "come": 720,
      "Ġdown": 721,
      "ason": 722,
      "Ġold": 723,
      "Ġarm": 724,
      "ang": 725,
      "ED": 726,
      "ause": 727,
      "ĠMy": 728,
      "ower": 729,
      "Ġhar": 730,
      "land": 731,
      "Ġlong": 732,
      "Why": 733,
      "be": 734,
      "Ġbefore": 735,
      "Ġthus": 736,
      "irst": 737,
      "les": 738,
      "Ġnew": 739,
      "By": 740,
      "Ġcould": 741,
      "Ġear": 742,
      "Ġrem": 743,
      "Ġcour": 744,
      "ĠLet": 745,
      "ĠSir": 746,
      "Ġpoor": 747,
      "Ġsoul": 748,
      "ne": 749,
      "Ġdead": 750,
      "ty": 751,
      "hall": 752,
      "ark": 753,
      "Ġpur": 754,
      "Ġever": 755,
      "uke": 756,
      "Ġbeing": 757,
      "ds": 758,
      "ple": 759,
      "Ġcomes": 760,
      "STA": 761,
      "ORD": 762,
      "No": 763,
      "ious": 764,
      "IAN": 765,
      "ach": 766,
      "ĠIt": 767,
      "Ġend": 768,
      "Ġbetter": 769,
      "ouse": 770,
      "Ġshow": 771,
      "ĠPr": 772,
      "eace": 773,
      "Ġfind": 774,
      "Ġbest": 775,
      "nto": 776,
      "INE": 777,
      "ĠHow": 778,
      "hes": 779,
      "RA": 780,
      "RIN": 781,
      "atter": 782,
      "Ġrep": 783,
      "Ġstill": 784,
      "Ġlady": 785,
      "Ġtwo": 786,
      "ĠThere": 787,
      "Ġkeep": 788,
      "IS": 789,
      "ought": 790,
      "akes": 791,
      "os": 792,
      "Ġboth": 793,
      "well": 794,
      "Ġmer": 795,
      "ĠCome": 796,
      "Let": 797,
      "ied": 798,
      "oy": 799,
      "BE": 800,
      "Ġinto": 801,
      "Ġbear": 802,
      "Ġmyself": 803,
      ".\"": 804,
      "BER": 805,
      "Ġlive": 806,
      "ew": 807,
      "ius": 808,
      "aughter": 809,
      "Ġevery": 810,
      "une": 811,
      "ittle": 812,
      "Ġmany": 813,
      "Ġsm": 814,
      "eth": 815,
      "PRIN": 816,
      "Ġnothing": 817,
      "Ġbra": 818,
      "Ġfool": 819,
      "hip": 820,
      "COND": 821,
      "RU": 822,
      "Ġent": 823,
      "SECOND": 824,
      "Now": 825,
      "Ġmaster": 826,
      "ier": 827,
      "Ġpri": 828,
      "aid": 829,
      "Ġfriends": 830,
      "ĠThis": 831,
      "Ġfell": 832,
      "ts": 833,
      "CHARD": 834,
      "Come": 835,
      "Your": 836,
      "Ġput": 837,
      "HAM": 838,
      "ged": 839,
      "ond": 840,
      "uck": 841,
      "ins": 842,
      "Ġconf": 843,
      "vil": 844,
      "Ġthose": 845,
      "Ġeye": 846,
      "Ġtong": 847,
      "cy": 848,
      "ian": 849,
      "Ġlittle": 850,
      "LET": 851,
      "led": 852,
      "Ġgl": 853,
      "race": 854,
      "MAN": 855,
      "Ġset": 856,
      "Ġhour": 857,
      "arry": 858,
      "KE": 859,
      "Ġlie": 860,
      "SS": 861,
      "ĠCa": 862,
      "Ġdie": 863,
      "rant": 864,
      "ons": 865,
      "MA": 866,
      "RY": 867,
      "Ġdear": 868,
      "ces": 869,
      "ove": 870,
      "Ġwife": 871,
      "of": 872,
      "men": 873,
      "Ġfirst": 874,
      "Ġchi": 875,
      "eds": 876,
      "Ġhold": 877,
      "STAFF": 878,
      "uty": 879,
      "ĠĠĠĠ": 880,
      "EEN": 881,
      "ia": 882,
      "Ġnat": 883,
      "uth": 884,
      "Than": 885,
      "ile": 886,
      "ren": 887,
      "alk": 888,
      "FAL": 889,
      "its": 890,
      "FALSTAFF": 891,
      "His": 892,
      "rance": 893,
      "Ġface": 894,
      "ĠTo": 895,
      "atch": 896,
      "lf": 897,
      "QUEEN": 898,
      "ĠWe": 899,
      "oud": 900,
      "Ġgri": 901,
      "lt": 902,
      "iness": 903,
      "ĠThat": 904,
      "Ġfe": 905,
      "Ġyoung": 906,
      "Ġmind": 907,
      "lse": 908,
      "Ġsle": 909,
      "Ġthine": 910,
      "ĠOF": 911,
      "cl": 912,
      "ret": 913,
      "ĠV": 914,
      "ield": 915,
      "get": 916,
      "ĠFor": 917,
      "ilt": 918,
      "Ġworth": 919,
      "Ġagainst": 920,
      "ail": 921,
      "Ġtri": 922,
      "ows": 923,
      "Ġrest": 924,
      "Ġcons": 925,
      "ring": 926,
      "Ġunder": 927,
      "istress": 928,
      "TER": 929,
      "ched": 930,
      "Ġgu": 931,
      "TUS": 932,
      "Ġfull": 933,
      "ĠEng": 934,
      "Ġkind": 935,
      "Ġansw": 936,
      "Ġfall": 937,
      "esar": 938,
      "ens": 939,
      "Ġstay": 940,
      "ĠDuke": 941,
      "ICK": 942,
      "Then": 943,
      "Ġserv": 944,
      "esty": 945,
      "ROS": 946,
      "ale": 947,
      "BA": 948,
      "Ġhimself": 949,
      "irt": 950,
      "Ġfollow": 951,
      "UL": 952,
      "Ġtill": 953,
      "Ġche": 954,
      "ĠThou": 955,
      "Ġcou": 956,
      "Ġnone": 957,
      "Ġres": 958,
      "Ġtre": 959,
      "int": 960,
      "Ġmother": 961,
      "Ġgi": 962,
      "Ġgone": 963,
      "Ġhouse": 964,
      "mp": 965,
      "Ġfort": 966,
      "ect": 967,
      "har": 968,
      "Ġdaughter": 969,
      "ison": 970,
      "Ġplace": 971,
      "Ġpresent": 972,
      "Ġwhose": 973,
      "Ġtongue": 974,
      "Ġboy": 975,
      "PRINCE": 976,
      "Ġseem": 977,
      "Ġturn": 978,
      "Ġpass": 979,
      "ft": 980,
      "Ġelse": 981,
      "asure": 982,
      "Ġwords": 983,
      "RICHARD": 984,
      ",\"": 985,
      "ID": 986,
      "RESS": 987,
      "Ġtra": 988,
      "GO": 989,
      "ĠAy": 990,
      "pon": 991,
      "Ġch": 992,
      "Ġbring": 993,
      "St": 994,
      "Ġpeace": 995,
      "Ġforth": 996,
      "Ġright": 997,
      "Ġwoman": 998,
      "OST": 999,
      "ished": 1000,
      "BO": 1001,
      "you": 1002,
      "Ġchar": 1003,
      "ition": 1004,
      "old": 1005,
      "Ġsaid": 1006,
      "Ġcur": 1007,
      "Ġwo": 1008,
      "Ġsword": 1009,
      "ĠRome": 1010,
      "bt": 1011,
      "illain": 1012,
      "ĠWell": 1013,
      "ANTON": 1014,
      "ense": 1015,
      "Here": 1016,
      "ory": 1017,
      "Ġchild": 1018,
      "sand": 1019,
      "Ġhus": 1020,
      "Ġthough": 1021,
      "AG": 1022,
      "band": 1023,
      "hile": 1024,
      "Ġchan": 1025,
      "Ġlight": 1026,
      "Ġwrong": 1027,
      "MAR": 1028,
      "ĠSo": 1029,
      "Ġplay": 1030,
      "Ġimp": 1031,
      "Ġcount": 1032,
      "ĠHere": 1033,
      "Ġpe": 1034,
      "ĠDo": 1035,
      "Ġunto": 1036,
      "Ġafter": 1037,
      "Ġspir": 1038,
      "air": 1039,
      "med": 1040,
      "Ġcourt": 1041,
      "LES": 1042,
      "ned": 1043,
      "xt": 1044,
      "ati": 1045,
      "eech": 1046,
      "IST": 1047,
      "Ġfal": 1048,
      "ĠIs": 1049,
      "Ġonce": 1050,
      "Ġhope": 1051,
      "Ġmean": 1052,
      "Ġback": 1053,
      "ĠNow": 1054,
      "She": 1055,
      "orse": 1056,
      "Ġfaith": 1057,
      "Ġacc": 1058,
      "Ġthr": 1059,
      "Ġpower": 1060,
      "Ġbid": 1061,
      "ary": 1062,
      "LUC": 1063,
      "Shall": 1064,
      "ĠCaesar": 1065,
      "Ġkill": 1066,
      "Ġreason": 1067,
      "Ġdre": 1068,
      "Ġmatter": 1069,
      "Ġpra": 1070,
      "tw": 1071,
      "ab": 1072,
      "Ġcrown": 1073,
      "ried": 1074,
      "eal": 1075,
      "Ġdra": 1076,
      "DUKE": 1077,
      "SH": 1078,
      "imes": 1079,
      "selves": 1080,
      "vy": 1081,
      "ĠHEN": 1082,
      "ĠHENRY": 1083,
      "Have": 1084,
      "ister": 1085,
      "Ġhas": 1086,
      "Ġhusband": 1087,
      "Ġhum": 1088,
      "Ġanswer": 1089,
      "They": 1090,
      "Ġinde": 1091,
      "HAMLET": 1092,
      "com": 1093,
      "Ġdou": 1094,
      "Ġmeet": 1095,
      "DO": 1096,
      "Ġret": 1097,
      "Ġwhom": 1098,
      "Ġthousand": 1099,
      "Ġass": 1100,
      "ont": 1101,
      "MON": 1102,
      "Ġshame": 1103,
      "Ġgods": 1104,
      "fect": 1105,
      "pect": 1106,
      "UN": 1107,
      "Ġi": 1108,
      "Ġcause": 1109,
      "Ġdost": 1110,
      "Ġanother": 1111,
      "ĠAn": 1112,
      "Ġfalse": 1113,
      "Ġeven": 1114,
      "Ġindeed": 1115,
      "Ġhel": 1116,
      "Ġbea": 1117,
      "Upon": 1118,
      "omet": 1119,
      "Ġhome": 1120,
      "urd": 1121,
      "Thy": 1122,
      "ROM": 1123,
      "Ġbes": 1124,
      "Ġthing": 1125,
      "Ġgr": 1126,
      "ĠFrance": 1127,
      "ised": 1128,
      "Ġheard": 1129,
      "THER": 1130,
      "Ġjust": 1131,
      "ertain": 1132,
      "Will": 1133,
      "Ġbod": 1134,
      "Ġvirt": 1135,
      "Ġabout": 1136,
      "Ġvillain": 1137,
      "Ġhands": 1138,
      "Ġplease": 1139,
      "bs": 1140,
      "Ġover": 1141,
      "ĠGo": 1142,
      "Ġlords": 1143,
      "Ġtruth": 1144,
      "ute": 1145,
      "Ġwind": 1146,
      "Ġmis": 1147,
      "ardon": 1148,
      "Ġdisc": 1149,
      "ĠBy": 1150,
      "Ġmakes": 1151,
      "Ġhence": 1152,
      "Ġsleep": 1153,
      "CUS": 1154,
      "Ġmon": 1155,
      "Ġmaid": 1156,
      "Ġbed": 1157,
      "Ġuse": 1158,
      "ĠNay": 1159,
      "Ġthank": 1160,
      "Ġlaw": 1161,
      "Do": 1162,
      "Our": 1163,
      "ĠWhere": 1164,
      "Ġatt": 1165,
      "From": 1166,
      "fort": 1167,
      "IT": 1168,
      "Yet": 1169,
      "ousin": 1170,
      "Ġmadam": 1171,
      "cious": 1172,
      "Ġnature": 1173,
      "ms": 1174,
      "ade": 1175,
      "Ġsure": 1176,
      "Nor": 1177,
      "ning": 1178,
      "any": 1179,
      "ELLO": 1180,
      "Ġgold": 1181,
      "Ġfar": 1182,
      "Not": 1183,
      "Ġdi": 1184,
      "ĠBe": 1185,
      "Ġill": 1186,
      "vere": 1187,
      "ĠThen": 1188,
      "ĠAnt": 1189,
      "Ġbel": 1190,
      "Ġsold": 1191,
      "Ġbreak": 1192,
      "Ġcame": 1193,
      "Ġstate": 1194,
      "ock": 1195,
      "Ġletter": 1196,
      "!--": 1197,
      "Ġthings": 1198,
      "Ġere": 1199,
      "ĠShe": 1200,
      "ESTER": 1201,
      "Ġval": 1202,
      "Ġbu": 1203,
      "Ġbri": 1204,
      "Ġhapp": 1205,
      "ced": 1206,
      "yal": 1207,
      "Ġsent": 1208,
      "ĠGood": 1209,
      "ury": 1210,
      "Ġsub": 1211,
      "ĠGrace": 1212,
      "Ġbus": 1213,
      "ange": 1214,
      "ony": 1215,
      "Ġyouth": 1216,
      "OTH": 1217,
      "Ġadv": 1218,
      "Ġgrief": 1219,
      "AU": 1220,
      "Ġwant": 1221,
      "Ay": 1222,
      "Ġhu": 1223,
      "BETH": 1224,
      "ild": 1225,
      "Ġstre": 1226,
      "Ġnews": 1227,
      "RE": 1228,
      "Ġhither": 1229,
      "GAR": 1230,
      "PER": 1231,
      "aj": 1232,
      "Ġtears": 1233,
      "Ġfire": 1234,
      "Ġlast": 1235,
      "Ġshalt": 1236,
      "gether": 1237,
      "OM": 1238,
      "Ġsun": 1239,
      "Ġqueen": 1240,
      "Ġstri": 1241,
      "eed": 1242,
      "Ġdoes": 1243,
      "ult": 1244,
      "LEON": 1245,
      "Ġenough": 1246,
      "ĠWho": 1247,
      "Ġcoun": 1248,
      "OP": 1249,
      "with": 1250,
      "ined": 1251,
      "ieve": 1252,
      "Ġban": 1253,
      "Ġem": 1254,
      "Ġwel": 1255,
      "Ġhelp": 1256,
      "Go": 1257,
      "now": 1258,
      "ets": 1259,
      "Ġkiss": 1260,
      "dd": 1261,
      "uch": 1262,
      "oh": 1263,
      "Ġsince": 1264,
      "Ġint": 1265,
      "BEL": 1266,
      "ike": 1267,
      "att": 1268,
      "Ġfellow": 1269,
      "ily": 1270,
      "Ġgrace": 1271,
      "Ġhonest": 1272,
      "Good": 1273,
      "Ġcare": 1274,
      "Ġthree": 1275,
      "vers": 1276,
      "hold": 1277,
      "Ġrather": 1278,
      "ject": 1279,
      "Ġmistress": 1280,
      "Ġsec": 1281,
      "ĠMaster": 1282,
      "Ġenem": 1283,
      "ph": 1284,
      "peak": 1285,
      "Ġhang": 1286,
      "Ġstrong": 1287,
      "BRU": 1288,
      "day": 1289,
      "ides": 1290,
      "Ġseen": 1291,
      "ĠCl": 1292,
      "ĠEngland": 1293,
      "BRUTUS": 1294,
      "ctor": 1295,
      "Ġgentleman": 1296,
      "Un": 1297,
      "Ġland": 1298,
      "Ġdevil": 1299,
      "Ġsaw": 1300,
      "ohn": 1301,
      "ues": 1302,
      "OB": 1303,
      "ener": 1304,
      "pose": 1305,
      "Ġinst": 1306,
      "Ġfight": 1307,
      "ions": 1308,
      "Ġprince": 1309,
      "Ġjoy": 1310,
      "ajesty": 1311,
      "ches": 1312,
      "Ġwithout": 1313,
      "EUS": 1314,
      "Ġhigh": 1315,
      "Ġbreath": 1316,
      "Ġdesire": 1317,
      "Hath": 1318,
      "Ġsorrow": 1319,
      "Ġlay": 1320,
      "Ġweep": 1321,
      "Ġyourself": 1322,
      "Ġstrange": 1323,
      "anger": 1324,
      "Ġbody": 1325,
      "OTHELLO": 1326,
      "All": 1327,
      "IAGO": 1328,
      "ROSAL": 1329,
      "ates": 1330,
      "IOL": 1331,
      "pl": 1332,
      "Ġca": 1333,
      "Ġcousin": 1334,
      "Ġpers": 1335,
      "Ġpati": 1336,
      "that": 1337,
      "ents": 1338,
      "Ġlost": 1339,
      "Ġthrough": 1340,
      "Ġsomet": 1341,
      "Ġmeans": 1342,
      "Ġsea": 1343,
      "ork": 1344,
      "Ġsend": 1345,
      "Ġtherefore": 1346,
      "Ġremem": 1347,
      "FO": 1348,
      "Ġop": 1349,
      "Ġoft": 1350,
      "Ġspo": 1351,
      "eft": 1352,
      "Ġarms": 1353,
      "Ġwelcome": 1354,
      "Ġgrow": 1355,
      "Ġbless": 1356,
      "Ġcommand": 1357,
      "aw": 1358,
      "ner": 1359,
      "ceive": 1360,
      "Ġspirit": 1361,
      "let": 1362,
      "CASS": 1363,
      "ISTRESS": 1364,
      "Ġbeauty": 1365,
      "MISTRESS": 1366,
      "bed": 1367,
      "Ġless": 1368,
      "ween": 1369,
      "Ġgre": 1370,
      "ĠBr": 1371,
      "Ġhard": 1372,
      "Ġreturn": 1373,
      "ken": 1374,
      "Ġitself": 1375,
      "like": 1376,
      "An": 1377,
      "Ġfoul": 1378,
      "els": 1379,
      "Ġget": 1380,
      "ats": 1381,
      "ains": 1382,
      "Ġunc": 1383,
      "Are": 1384,
      "DEM": 1385,
      "use": 1386,
      "Ġneed": 1387,
      "ounds": 1388,
      "gainst": 1389,
      "ĠJohn": 1390,
      "ENTLE": 1391,
      "ANTONY": 1392,
      "Ġfore": 1393,
      "Ġleft": 1394,
      "Ġonly": 1395,
      "Ġdel": 1396,
      "ĠSt": 1397,
      "Ġswear": 1398,
      "ger": 1399,
      "Ġfree": 1400,
      "DY": 1401,
      "ouch": 1402,
      "Ġwhy": 1403,
      "ĠIn": 1404,
      "Ġstra": 1405,
      "oney": 1406,
      "LOUC": 1407,
      "LOUCESTER": 1408,
      "NE": 1409,
      "uff": 1410,
      "ross": 1411,
      "Ġrun": 1412,
      "dom": 1413,
      "Ġsick": 1414,
      "vel": 1415,
      "Ġlies": 1416,
      "Ġthoughts": 1417,
      "Ġtem": 1418,
      "Ġhorse": 1419,
      "Ġprove": 1420,
      "most": 1421,
      "ray": 1422,
      "Ġaw": 1423,
      "Ġsight": 1424,
      "ithe": 1425,
      "Ġtogether": 1426,
      "Ġyours": 1427,
      "so": 1428,
      "ored": 1429,
      "ze": 1430,
      "Ġtalk": 1431,
      "Ġpity": 1432,
      "ott": 1433,
      "Ġvi": 1434,
      "las": 1435,
      "Ġprom": 1436,
      "cei": 1437,
      "ANIO": 1438,
      "pped": 1439,
      "Ġfortune": 1440,
      "COR": 1441,
      "no": 1442,
      "Ġpardon": 1443,
      "Ġtold": 1444,
      "Ġproud": 1445,
      "Tw": 1446,
      "Ġwish": 1447,
      "Ġden": 1448,
      "GLOUCESTER": 1449,
      "mer": 1450,
      "Ġwithin": 1451,
      "Ġsays": 1452,
      "ĠYour": 1453,
      "Whose": 1454,
      "rink": 1455,
      "uc": 1456,
      "Ġsing": 1457,
      "Ġborn": 1458,
      "Ġbusiness": 1459,
      "ENTLEMAN": 1460,
      "IM": 1461,
      "UM": 1462,
      "Ġroyal": 1463,
      "PE": 1464,
      "ĠEar": 1465,
      "ever": 1466,
      "Ġfly": 1467,
      "Ġsuff": 1468,
      "Ġdisp": 1469,
      "Ġcountry": 1470,
      "ures": 1471,
      "Ġwilt": 1472,
      "Ġhalf": 1473,
      "Ġdef": 1474,
      "Ġjud": 1475,
      "outh": 1476,
      "Ġsad": 1477,
      "Ġlate": 1478,
      "Ġgave": 1479,
      "ĠWhen": 1480,
      "Ġvo": 1481,
      "Ġseek": 1482,
      "GER": 1483,
      "Her": 1484,
      "hould": 1485,
      "JUL": 1486,
      "Ġcry": 1487,
      "Ġcomfort": 1488,
      "ĠThey": 1489,
      "Ġearth": 1490,
      "YOR": 1491,
      "Ġwat": 1492,
      "Ġdist": 1493,
      "Ġfound": 1494,
      "FOOL": 1495,
      "ople": 1496,
      "Ġreven": 1497,
      "Ġexce": 1498,
      "ithee": 1499,
      "DER": 1500,
      "Even": 1501,
      "ship": 1502,
      "ĠHer": 1503,
      "Ġalone": 1504,
      "chan": 1505,
      "ĠQ": 1506,
      "ern": 1507,
      "itor": 1508,
      "Ġsupp": 1509,
      "LAND": 1510,
      "Ġnear": 1511,
      "Ġtom": 1512,
      "Ġinf": 1513,
      "ĠAs": 1514,
      "Ġlooks": 1515,
      "Ġwork": 1516,
      "On": 1517,
      "gs": 1518,
      "ran": 1519,
      "Ġdare": 1520,
      "PRO": 1521,
      "Ġsin": 1522,
      "Ġcra": 1523,
      "DIO": 1524,
      "Ġhate": 1525,
      "Till": 1526,
      "VOL": 1527,
      "ling": 1528,
      "Ġsister": 1529,
      "Ġmet": 1530,
      "Ġmurd": 1531,
      "ORT": 1532,
      "arewell": 1533,
      "Ġcold": 1534,
      "OW": 1535,
      "vor": 1536,
      "Ġsil": 1537,
      "Ġoath": 1538,
      "Ġbloody": 1539,
      "Ġdoubt": 1540,
      "MEN": 1541,
      "ix": 1542,
      "ub": 1543,
      "Ġair": 1544,
      "Ġsk": 1545,
      "ĠEd": 1546,
      "Ġquick": 1547,
      "GH": 1548,
      "TR": 1549,
      "by": 1550,
      "ked": 1551,
      "up": 1552,
      "Ġtend": 1553,
      "Ġwin": 1554,
      "Ġbir": 1555,
      "iff": 1556,
      "oman": 1557,
      "Ġservice": 1558,
      "Ġsame": 1559,
      "Ġread": 1560,
      "Ġthyself": 1561,
      "OLI": 1562,
      "Ġprison": 1563,
      "AGE": 1564,
      "Well": 1565,
      "op": 1566,
      "Ġtimes": 1567,
      "Ġdep": 1568,
      "Ġexp": 1569,
      "Did": 1570,
      "av": 1571,
      "my": 1572,
      "enry": 1573,
      "ĠMar": 1574,
      "ured": 1575,
      "ments": 1576,
      "Ġdraw": 1577,
      "eneral": 1578,
      "LI": 1579,
      "Ġbro": 1580,
      "ĠWill": 1581,
      "Ġlose": 1582,
      "Ġfoot": 1583,
      "CLE": 1584,
      "More": 1585,
      "Nay": 1586,
      "vent": 1587,
      "alth": 1588,
      "Ġsoon": 1589,
      "Ġloves": 1590,
      "Ġdays": 1591,
      "Ġpurpose": 1592,
      "Ġpeople": 1593,
      "Give": 1594,
      "Sir": 1595,
      "Would": 1596,
      "iet": 1597,
      "Ġwear": 1598,
      "At": 1599,
      "aim": 1600,
      "Ġfur": 1601,
      "Ġlear": 1602,
      "oose": 1603,
      "TIMON": 1604,
      "hard": 1605,
      "Ġeach": 1606,
      "ĠTro": 1607,
      "ĠYork": 1608,
      "MAC": 1609,
      "cess": 1610,
      "cause": 1611,
      "ery": 1612,
      "ĠHis": 1613,
      "ĠNot": 1614,
      "TOR": 1615,
      "ĠAr": 1616,
      "UNT": 1617,
      "Some": 1618,
      "Was": 1619,
      "Ġlives": 1620,
      "thing": 1621,
      "IND": 1622,
      "Ġfare": 1623,
      "Ġbeseech": 1624,
      "JA": 1625,
      "Ġsound": 1626,
      "Ġcho": 1627,
      "usic": 1628,
      "ERV": 1629,
      "DES": 1630,
      "Ġage": 1631,
      "Ġmin": 1632,
      "Ġdanger": 1633,
      "ester": 1634,
      "Though": 1635,
      "ATRA": 1636,
      "Ġcalled": 1637,
      "OPATRA": 1638,
      "YORK": 1639,
      "CLEOPATRA": 1640,
      "oor": 1641,
      "INIUS": 1642,
      "ELL": 1643,
      "Ġcond": 1644,
      "Ġlead": 1645,
      "rench": 1646,
      "HEL": 1647,
      "YRA": 1648,
      "Ġdam": 1649,
      "Ġdru": 1650,
      "ĠSYRA": 1651,
      "ĠNor": 1652,
      "Ġknows": 1653,
      "Ġpleas": 1654,
      "CUSE": 1655,
      "ĠSYRACUSE": 1656,
      "Ġter": 1657,
      "Ġaff": 1658,
      "rew": 1659,
      "rest": 1660,
      "Ġdeep": 1661,
      "ROSALIND": 1662,
      "BEN": 1663,
      "bor": 1664,
      "Ġyield": 1665,
      "Ġworthy": 1666,
      "Ġdream": 1667,
      "TES": 1668,
      "lish": 1669,
      "fection": 1670,
      "ATHER": 1671,
      "Ġwa": 1672,
      "Ġcar": 1673,
      "ĠHigh": 1674,
      "CHIO": 1675,
      "ANTI": 1676,
      "Ġcontent": 1677,
      "Ġcharge": 1678,
      "?--": 1679,
      "ior": 1680,
      "Ġloved": 1681,
      "OLK": 1682,
      "ELIA": 1683,
      "ILIA": 1684,
      "Like": 1685,
      "PAR": 1686,
      "Ġfield": 1687,
      "ift": 1688,
      "ices": 1689,
      "Ġtrust": 1690,
      "Ġhappy": 1691,
      "but": 1692,
      "BAST": 1693,
      "GARET": 1694,
      "IMO": 1695,
      "ible": 1696,
      "Ġfit": 1697,
      "oward": 1698,
      "enty": 1699,
      "ĠMajesty": 1700,
      "Ġcompany": 1701,
      "ATHERINE": 1702,
      "Ġwise": 1703,
      "adam": 1704,
      "Ġgrave": 1705,
      "LADY": 1706,
      "Ġcommon": 1707,
      "your": 1708,
      "Ġbound": 1709,
      "estion": 1710,
      "ENGER": 1711,
      "ends": 1712,
      "ESSENGER": 1713,
      "ĠAntony": 1714,
      "PET": 1715,
      "sed": 1716,
      "hal": 1717,
      "Ġfea": 1718,
      "Ġsum": 1719,
      "ĠAt": 1720,
      "ĠCass": 1721,
      "ief": 1722,
      "aking": 1723,
      "THIR": 1724,
      "Ġholy": 1725,
      "THIRD": 1726,
      "VIA": 1727,
      "ial": 1728,
      "Ġsit": 1729,
      "onight": 1730,
      "Ġpast": 1731,
      "Ġrec": 1732,
      "wick": 1733,
      "Ġbar": 1734,
      "ĠHenry": 1735,
      "ANUS": 1736,
      "Ġknight": 1737,
      "Ġbrought": 1738,
      "Ġgracious": 1739,
      "Ġfurther": 1740,
      "Ġsur": 1741,
      "Ġforg": 1742,
      "Ġvirtue": 1743,
      "Ġyears": 1744,
      "LEAR": 1745,
      "Ġpleasure": 1746,
      "Ġgiven": 1747,
      "Ġwoe": 1748,
      "PAND": 1749,
      "TA": 1750,
      "Ġact": 1751,
      "Ġdrink": 1752,
      "Ġpay": 1753,
      "Ġhell": 1754,
      "ries": 1755,
      "ĠLORD": 1756,
      "unes": 1757,
      "Ġbold": 1758,
      "Ġmark": 1759,
      "ĠPrince": 1760,
      "BOY": 1761,
      "Ġbelieve": 1762,
      "vo": 1763,
      "Ġten": 1764,
      "Ġmusic": 1765,
      "Ġsovere": 1766,
      "Ġblack": 1767,
      "Ġposs": 1768,
      "ĠHighness": 1769,
      "WARD": 1770,
      "gue": 1771,
      "ls": 1772,
      "Ġac": 1773,
      "Ġcor": 1774,
      "Ġknown": 1775,
      "LY": 1776,
      "WAR": 1777,
      "Ġlad": 1778,
      "ened": 1779,
      "Ġste": 1780,
      "ĠGENTLEMAN": 1781,
      "ĠOr": 1782,
      "Ġheavy": 1783,
      "Ġbetween": 1784,
      "Ġwarrant": 1785,
      "Therefore": 1786,
      "Were": 1787,
      "WICK": 1788,
      "Ġsake": 1789,
      "Ġcut": 1790,
      "ĠTherefore": 1791,
      "Ġbrave": 1792,
      "Ġpraise": 1793,
      "CO": 1794,
      "arwick": 1795,
      "stand": 1796,
      "ALL": 1797,
      "ortal": 1798,
      "WARWICK": 1799,
      "HN": 1800,
      "OHN": 1801,
      "ster": 1802,
      "ceed": 1803,
      "iece": 1804,
      "inks": 1805,
      "cks": 1806,
      "ĠAll": 1807,
      "OLUS": 1808,
      "PHOLUS": 1809,
      "Ġserve": 1810,
      "ĠPray": 1811,
      "ANTIPHOLUS": 1812,
      "iant": 1813,
      "ANCE": 1814,
      "Ġfault": 1815,
      "Ġrich": 1816,
      "Ġchee": 1817,
      "Ġground": 1818,
      "Can": 1819,
      "iers": 1820,
      "Ġmorn": 1821,
      "Ġwhile": 1822,
      "Ġcertain": 1823,
      "ueen": 1824,
      "ĠYet": 1825,
      "Look": 1826,
      "MER": 1827,
      "kes": 1828,
      "Ġinc": 1829,
      "oof": 1830,
      "Ġdev": 1831,
      "Ġjo": 1832,
      "Ġmercy": 1833,
      "Ġuncle": 1834,
      "ec": 1835,
      "lly": 1836,
      "Ġrequ": 1837,
      "ichard": 1838,
      "Ġreport": 1839,
      "HER": 1840,
      "him": 1841,
      "ĠFrench": 1842,
      "Ġmarry": 1843,
      "osed": 1844,
      "EPH": 1845,
      "onor": 1846,
      "Ġgeneral": 1847,
      "Ġears": 1848,
      "aff": 1849,
      "Ġhot": 1850,
      "Ġgall": 1851,
      "Ġweak": 1852,
      "Ġhearts": 1853,
      "Ġenemy": 1854,
      "Ġeat": 1855,
      "ush": 1856,
      "Ġprof": 1857,
      "Ġdeser": 1858,
      "ceived": 1859,
      "ĠEdward": 1860,
      "VAL": 1861,
      "Ġburn": 1862,
      "esh": 1863,
      "Ġpar": 1864,
      "ated": 1865,
      "ARUS": 1866,
      "EMILIA": 1867,
      "Ġcourse": 1868,
      "Ġperson": 1869,
      "we": 1870,
      "Ġtonight": 1871,
      "Ġwis": 1872,
      "Ġdro": 1873,
      "owers": 1874,
      "ONA": 1875,
      "ĠQueen": 1876,
      "Ġtomorrow": 1877,
      "ots": 1878,
      "Ġlips": 1879,
      "ĠWarwick": 1880,
      "Ġask": 1881,
      "Ġknew": 1882,
      "aste": 1883,
      "Ġgoes": 1884,
      "Ġwomen": 1885,
      "Ġconfess": 1886,
      "Ġsubject": 1887,
      "Ġtender": 1888,
      "CTOR": 1889,
      "MESSENGER": 1890,
      "bly": 1891,
      "rous": 1892,
      "owed": 1893,
      "These": 1894,
      "Ġsuit": 1895,
      "Ġprop": 1896,
      "sue": 1897,
      "weet": 1898,
      "Ġsign": 1899,
      "Ġside": 1900,
      "Ġvis": 1901,
      "Ġtook": 1902,
      "Ġdesp": 1903,
      "Ġcounsel": 1904,
      "May": 1905,
      "will": 1906,
      "cked": 1907,
      "Ġext": 1908,
      "DEMONA": 1909,
      "DESDEMONA": 1910,
      "HELEN": 1911,
      "Ġbehold": 1912,
      "utus": 1913,
      "thy": 1914,
      "Ġshort": 1915,
      "Ġpatience": 1916,
      "EO": 1917,
      "God": 1918,
      "som": 1919,
      "uous": 1920,
      "Ġfour": 1921,
      "Ġcol": 1922,
      "Ġdeed": 1923,
      "ENIUS": 1924,
      "Ġspeed": 1925,
      "ROMEO": 1926,
      "Ġremember": 1927,
      "MENENIUS": 1928,
      "CLA": 1929,
      "DROM": 1930,
      "KATHERINE": 1931,
      "Ġest": 1932,
      "Ġmouth": 1933,
      "alt": 1934,
      "Ġred": 1935,
      "Ġfast": 1936,
      "Ġpret": 1937,
      "Ġentreat": 1938,
      "CLAU": 1939,
      "DROMIO": 1940,
      "und": 1941,
      "Ġmoney": 1942,
      "Ġwret": 1943,
      "Ġcle": 1944,
      "Ġgar": 1945,
      "Ġknave": 1946,
      "Ġthemselves": 1947,
      "Ġring": 1948,
      "ISA": 1949,
      "Ġmerry": 1950,
      "ethinks": 1951,
      "Ġservant": 1952,
      "Ġchange": 1953,
      "SU": 1954,
      "Ġwhe": 1955,
      "ities": 1956,
      "Ġbeat": 1957,
      "ENCE": 1958,
      "Ġneither": 1959,
      "Ġworse": 1960,
      "Ġbosom": 1961,
      "BEROW": 1962,
      "Ġsovereign": 1963,
      "CLAUDIO": 1964,
      "BEROWNE": 1965,
      "AS": 1966,
      "az": 1967,
      "pr": 1968,
      "Ġwoo": 1969,
      "Ġbase": 1970,
      "ones": 1971,
      "ĠMarry": 1972,
      "Ġcanst": 1973,
      "RUCHIO": 1974,
      "ĠEarth": 1975,
      "Ġvoice": 1976,
      "PETRUCHIO": 1977,
      "Had": 1978,
      "mber": 1979,
      "ready": 1980,
      "ote": 1981,
      "Ġgro": 1982,
      "alm": 1983,
      "Ġnext": 1984,
      "Ġprin": 1985,
      "ully": 1986,
      "Ġfeel": 1987,
      "!\"": 1988,
      "Ġta": 1989,
      "Ġhair": 1990,
      "each": 1991,
      "Ġself": 1992,
      "ĠGive": 1993,
      "aud": 1994,
      "Ġhaste": 1995,
      "IDA": 1996,
      "Ġfarewell": 1997,
      "AP": 1998,
      "Ġlam": 1999,
      "othing": 2000,
      "Ġpoint": 2001,
      "ĠEnglish": 2002,
      "ixt": 2003,
      "ses": 2004,
      "ĠWith": 2005,
      "Ġsave": 2006,
      "Ġscorn": 2007,
      "Ġglad": 2008,
      "Ġsoldier": 2009,
      "Ġemb": 2010,
      "ires": 2011,
      "Ġdark": 2012,
      "Ġduty": 2013,
      "Ġfavor": 2014,
      "ortune": 2015,
      "ĠYes": 2016,
      "Ġstraight": 2017,
      "CRESS": 2018,
      "Ġthri": 2019,
      "Ġpen": 2020,
      "ally": 2021,
      "ĠRichard": 2022,
      "PANDARUS": 2023,
      "CRESSIDA": 2024,
      "TOB": 2025,
      "fter": 2026,
      "ives": 2027,
      "ENTINE": 2028,
      "Ġtraitor": 2029,
      "Ġdiv": 2030,
      "BELLA": 2031,
      "Ġsomething": 2032,
      "VALENTINE": 2033,
      "TOBY": 2034,
      "ca": 2035,
      "gar": 2036,
      "Ġcr": 2037,
      "ĠMAR": 2038,
      "ĠLady": 2039,
      "Ġquestion": 2040,
      "LOW": 2041,
      "Ġgentlemen": 2042,
      "Ġattend": 2043,
      "Should": 2044,
      "cester": 2045,
      "Ġbad": 2046,
      "Ġcoward": 2047,
      "used": 2048,
      "Ġwhite": 2049,
      "Ġstreng": 2050,
      "VOLIO": 2051,
      "Ġwalk": 2052,
      "Ġbatt": 2053,
      "Ġtoday": 2054,
      "riage": 2055,
      "rah": 2056,
      "IOLANUS": 2057,
      "CORIOLANUS": 2058,
      "TEUS": 2059,
      "ges": 2060,
      "hood": 2061,
      "night": 2062,
      "pare": 2063,
      "Ġcast": 2064,
      "Ġcreat": 2065,
      "Ġhur": 2066,
      "Ġtoward": 2067,
      "Ġdog": 2068,
      "ĠCh": 2069,
      "OLD": 2070,
      "Ġspoke": 2071,
      "PROTEUS": 2072,
      "Ġopp": 2073,
      "eness": 2074,
      "Ġnote": 2075,
      "ained": 2076,
      "Ġsport": 2077,
      "ATO": 2078,
      "Ġsons": 2079,
      "Ġappro": 2080,
      "Ġharm": 2081,
      "Ġwonder": 2082,
      "ANTONIO": 2083,
      "SHAL": 2084,
      "Ġvaliant": 2085,
      "Ġopen": 2086,
      "Ġwater": 2087,
      "ĠMARGARET": 2088,
      "CAL": 2089,
      "HOST": 2090,
      "cher": 2091,
      "Ġord": 2092,
      "Ġwhi": 2093,
      "have": 2094,
      "ites": 2095,
      "Ġpale": 2096,
      "iled": 2097,
      "Ġspeech": 2098,
      "ĠLook": 2099,
      "ainted": 2100,
      "Ġjustice": 2101,
      "MACBETH": 2102,
      "Since": 2103,
      "unt": 2104,
      "Ġwatch": 2105,
      "Ġtown": 2106,
      "Ġcoming": 2107,
      "feit": 2108,
      "One": 2109,
      "UT": 2110,
      "lou": 2111,
      "umb": 2112,
      "Ġdidst": 2113,
      "Ġquar": 2114,
      "Ġpresently": 2115,
      "Make": 2116,
      "more": 2117,
      "Ġsat": 2118,
      "Ġlau": 2119,
      "Ġreg": 2120,
      "Thus": 2121,
      "Ġneeds": 2122,
      "Ġpluck": 2123,
      "Ġalmost": 2124,
      "Ġflesh": 2125,
      "ague": 2126,
      "Ġliege": 2127,
      "Ġrespect": 2128,
      "dden": 2129,
      "Ġcapt": 2130,
      "Ġrevenge": 2131,
      "che": 2132,
      "gment": 2133,
      "Ġaction": 2134,
      "Ġfra": 2135,
      "irm": 2136,
      "OLLES": 2137,
      "KINGHAM": 2138,
      "ĠJOHN": 2139,
      "UCKINGHAM": 2140,
      "PAROLLES": 2141,
      "\"?": 2142,
      "BUCKINGHAM": 2143,
      "FL": 2144,
      "NOR": 2145,
      "Ġtit": 2146,
      "Ġlust": 2147,
      "als": 2148,
      "ĠHel": 2149,
      "ERD": 2150,
      "Ġtwenty": 2151,
      "Ġhours": 2152,
      "ĠBrutus": 2153,
      "Against": 2154,
      "ip": 2155,
      "ines": 2156,
      "Ġmortal": 2157,
      "Ġcity": 2158,
      "Ġlack": 2159,
      "Ġunt": 2160,
      "ired": 2161,
      "Ġmarried": 2162,
      "LEONATO": 2163,
      "BAN": 2164,
      "Com": 2165,
      "PAL": 2166,
      "bert": 2167,
      "ging": 2168,
      "rel": 2169,
      "Ġstir": 2170,
      "ESUS": 2171,
      "ĠEPH": 2172,
      "Ġoffend": 2173,
      "AMON": 2174,
      "Ġtrou": 2175,
      "Ġadd": 2176,
      "Ġmoon": 2177,
      "Ġstands": 2178,
      "PALAMON": 2179,
      "ĠEPHESUS": 2180,
      "FORD": 2181,
      "Ġheir": 2182,
      "Ġloss": 2183,
      "rust": 2184,
      "Ġprithee": 2185,
      "ĠHector": 2186,
      "FFOLK": 2187,
      "Ġperfor": 2188,
      "CASSIUS": 2189,
      "SUFFOLK": 2190,
      "Ġstrength": 2191,
      "Take": 2192,
      "Ġmod": 2193,
      "Ġhide": 2194,
      "eter": 2195,
      "Ġund": 2196,
      "umber": 2197,
      "Ġheavens": 2198,
      "EDICK": 2199,
      "BENEDICK": 2200,
      "Al": 2201,
      "GR": 2202,
      "bit": 2203,
      "Ġty": 2204,
      "Ġwars": 2205,
      "Ġbecome": 2206,
      "Ġforb": 2207,
      "Their": 2208,
      "ESAR": 2209,
      "Ġras": 2210,
      "cience": 2211,
      "CAESAR": 2212,
      "Ġdeny": 2213,
      "SHALLOW": 2214,
      "Ġgrant": 2215,
      "Ġinter": 2216,
      "rows": 2217,
      "Ġbond": 2218,
      "Ġalready": 2219,
      "Ġslain": 2220,
      "Ġclose": 2221,
      "IER": 2222,
      "Wh": 2223,
      "over": 2224,
      "Ġsense": 2225,
      "Ġwild": 2226,
      "Ġbeast": 2227,
      "ĠAl": 2228,
      "bles": 2229,
      "Ġwithal": 2230,
      "Ġfeast": 2231,
      "Ġmorning": 2232,
      "loucester": 2233,
      "Must": 2234,
      "PORT": 2235,
      "mand": 2236,
      "Ġclo": 2237,
      "olk": 2238,
      "Ġplain": 2239,
      "Ġappear": 2240,
      "PORTIA": 2241,
      "CIT": 2242,
      "TRO": 2243,
      "dge": 2244,
      "rs": 2245,
      "Ġtouch": 2246,
      "llent": 2247,
      "Ġdire": 2248,
      "ashi": 2249,
      "ARCIT": 2250,
      "Ġvile": 2251,
      "ILUS": 2252,
      "TROILUS": 2253,
      "ARCITE": 2254,
      "HOR": 2255,
      "eem": 2256,
      "Ġmount": 2257,
      "Ġwall": 2258,
      "Ġcap": 2259,
      "Ġlow": 2260,
      "ench": 2261,
      "Ġang": 2262,
      "empt": 2263,
      "Ġsworn": 2264,
      "TITUS": 2265,
      "Ġbegin": 2266,
      "BOT": 2267,
      "Ġdread": 2268,
      "DWARD": 2269,
      "Most": 2270,
      "pes": 2271,
      "sh": 2272,
      "vol": 2273,
      "oun": 2274,
      "Ġmot": 2275,
      "Ġbook": 2276,
      "oop": 2277,
      "Ġshad": 2278,
      "Ġsudden": 2279,
      "ĠEDWARD": 2280,
      "Ġbreast": 2281,
      "Ġkingdom": 2282,
      "Say": 2283,
      "ny": 2284,
      "oll": 2285,
      "Ġid": 2286,
      "Ġsigh": 2287,
      "ask": 2288,
      "Ġsoft": 2289,
      "Ġkne": 2290,
      "ĠPer": 2291,
      "Ġthanks": 2292,
      "Ġtruly": 2293,
      "Ġrage": 2294,
      "Ġgrie": 2295,
      "ISABELLA": 2296,
      "DAU": 2297,
      "GON": 2298,
      "con": 2299,
      "ffect": 2300,
      "ught": 2301,
      "etch": 2302,
      "roke": 2303,
      "Ġconst": 2304,
      "Ġjest": 2305,
      "ĠThy": 2306,
      "Ġabs": 2307,
      "Ġwrit": 2308,
      "Ġscar": 2309,
      "Ġslave": 2310,
      "Ġpriv": 2311,
      "AD": 2312,
      "EW": 2313,
      "MAL": 2314,
      "iz": 2315,
      "ler": 2316,
      "ron": 2317,
      "ham": 2318,
      "Ġhaving": 2319,
      "Ġran": 2320,
      "Ġoffice": 2321,
      "Before": 2322,
      "Ġchildren": 2323,
      "LUCIUS": 2324,
      "BUS": 2325,
      "BUR": 2326,
      "POL": 2327,
      "rist": 2328,
      "Ġcross": 2329,
      "Ġob": 2330,
      "Ġind": 2331,
      "ORLAND": 2332,
      "Ġdish": 2333,
      "LEONTES": 2334,
      "IET": 2335,
      "KENT": 2336,
      "Out": 2337,
      "SIC": 2338,
      "See": 2339,
      "cri": 2340,
      "ience": 2341,
      "sp": 2342,
      "Ġloving": 2343,
      "antage": 2344,
      "Ġhonorable": 2345,
      "claim": 2346,
      "JULIET": 2347,
      "'re": 2348,
      "Ah": 2349,
      "eath": 2350,
      "Ġshi": 2351,
      "Ġmorrow": 2352,
      "rage": 2353,
      "ANG": 2354,
      "asters": 2355,
      "ĠFortune": 2356,
      "Ġwhole": 2357,
      "Ġmock": 2358,
      "bey": 2359,
      "Ġspirits": 2360,
      "ITI": 2361,
      "Re": 2362,
      "oly": 2363,
      "oss": 2364,
      "rem": 2365,
      "Ġpit": 2366,
      "ution": 2367,
      "Ġready": 2368,
      "Ġdeeds": 2369,
      "INA": 2370,
      "Ġfortunes": 2371,
      "Ġkilled": 2372,
      "PIST": 2373,
      "VIOL": 2374,
      "ting": 2375,
      "isf": 2376,
      "imon": 2377,
      "Ġform": 2378,
      "Ġstru": 2379,
      "Ġrel": 2380,
      "ĠHa": 2381,
      "ĠShall": 2382,
      "ressed": 2383,
      "Ġsoldiers": 2384,
      "PISTOL": 2385,
      "VIOLA": 2386,
      "ZA": 2387,
      "aith": 2388,
      "Ġag": 2389,
      "Ġble": 2390,
      "enge": 2391,
      "ature": 2392,
      "Ġeither": 2393,
      "Ġeffect": 2394,
      "Ġliving": 2395,
      "Ġkings": 2396,
      "resh": 2397,
      "Ġgives": 2398,
      "Ġinstru": 2399,
      "king": 2400,
      "nk": 2401,
      "Ġmess": 2402,
      "Ġmist": 2403,
      "Ġwound": 2404,
      "Ġfat": 2405,
      "Ġlim": 2406,
      "Ġsteal": 2407,
      "ander": 2408,
      "ESEUS": 2409,
      "THESEUS": 2410,
      "ICLES": 2411,
      "Ġadm": 2412,
      "ĠLordship": 2413,
      "Ġenter": 2414,
      "Ġunderstand": 2415,
      "Ġresol": 2416,
      "Ġpassion": 2417,
      "PERICLES": 2418,
      "Ġstrike": 2419,
      "COUNT": 2420,
      "Ġpretty": 2421,
      "ORLANDO": 2422,
      "GEN": 2423,
      "lst": 2424,
      "head": 2425,
      "rey": 2426,
      "Ġgot": 2427,
      "aken": 2428,
      "Ġspeaks": 2429,
      "Ġpride": 2430,
      "Ġletters": 2431,
      "OLIVIA": 2432,
      "'d": 2433,
      "Ar": 2434,
      "SP": 2435,
      "his": 2436,
      "hind": 2437,
      "ying": 2438,
      "Ġve": 2439,
      "Ġbit": 2440,
      "Ġfam": 2441,
      "Ġforce": 2442,
      "elcome": 2443,
      "IMOGEN": 2444,
      "ashion": 2445,
      "SICINIUS": 2446,
      "PA": 2447,
      "Such": 2448,
      "SPE": 2449,
      "ued": 2450,
      "Ġpu": 2451,
      "right": 2452,
      "urse": 2453,
      "ations": 2454,
      "IANA": 2455,
      "Ġtreason": 2456,
      "Ġseems": 2457,
      "SPEED": 2458,
      "ford": 2459,
      "ndred": 2460,
      "ited": 2461,
      "ieu": 2462,
      "ĠTake": 2463,
      "Ġdisg": 2464,
      "Ġmarriage": 2465,
      "ignior": 2466,
      "Ġwitness": 2467,
      "Ġhundred": 2468,
      "Ġjudgment": 2469,
      "Speak": 2470,
      "eep": 2471,
      "wor": 2472,
      "Ġfing": 2473,
      "ĠHave": 2474,
      "though": 2475,
      "ĠMistress": 2476,
      "iew": 2477,
      "Ġpoison": 2478,
      "aced": 2479,
      "Ġsouls": 2480,
      "Ġguard": 2481,
      "Ġsuffer": 2482,
      "Ġpossess": 2483,
      "Ġbattle": 2484,
      "Farewell": 2485,
      "fully": 2486,
      "ict": 2487,
      "mbl": 2488,
      "Ġut": 2489,
      "Ġmal": 2490,
      "Ġdied": 2491,
      "Ġcase": 2492,
      "ancy": 2493,
      "Ġissue": 2494,
      "ĠGloucester": 2495,
      "Ġgod": 2496,
      "Ġconqu": 2497,
      "ults": 2498,
      "ELO": 2499,
      "Ġaffection": 2500,
      "Ġconscience": 2501,
      "Ġbanished": 2502,
      "Ġenemies": 2503,
      "ANGELO": 2504,
      "Lord": 2505,
      "PROS": 2506,
      "cha": 2507,
      "ners": 2508,
      "Ġfill": 2509,
      "Ġeas": 2510,
      "ĠSEN": 2511,
      "ARBUS": 2512,
      "ENOB": 2513,
      "Ġwouldst": 2514,
      "Ġalong": 2515,
      "Ġcheer": 2516,
      "PERO": 2517,
      "Ġoften": 2518,
      "PROSPERO": 2519,
      "ENOBARBUS": 2520,
      "LANCE": 2521,
      "Tell": 2522,
      "YM": 2523,
      "ZEN": 2524,
      "gg": 2525,
      "kind": 2526,
      "nown": 2527,
      "Ġtale": 2528,
      "Ġsho": 2529,
      "Ġlion": 2530,
      "ĠWould": 2531,
      "Ġdeli": 2532,
      "Ġdoor": 2533,
      "ants": 2534,
      "CHAR": 2535,
      "umph": 2536,
      "Ġexec": 2537,
      "Ġchamber": 2538,
      "ATIO": 2539,
      "Ġanything": 2540,
      "Ġvalor": 2541,
      "HORATIO": 2542,
      "ITIZEN": 2543,
      "BOL": 2544,
      "VER": 2545,
      "Ġsim": 2546,
      "read": 2547,
      "Ġcru": 2548,
      "Ġhealth": 2549,
      "anc": 2550,
      "ety": 2551,
      "ird": 2552,
      "Ġreb": 2553,
      "ĠSpeak": 2554,
      "ONE": 2555,
      "Ġchance": 2556,
      "LUCIO": 2557,
      "Ġbuy": 2558,
      "Ġblessed": 2559,
      "CASSIO": 2560,
      "Ġbirth": 2561,
      "Ġtitle": 2562,
      "Pro": 2563,
      "ient": 2564,
      "Ġmir": 2565,
      "Ġpost": 2566,
      "Ġbears": 2567,
      "set": 2568,
      "this": 2569,
      "ĠOur": 2570,
      "Ġleast": 2571,
      "ealous": 2572,
      "SHEPH": 2573,
      "Ġawhile": 2574,
      "Ġacqu": 2575,
      "OLDIER": 2576,
      "SHEPHERD": 2577,
      "BRO": 2578,
      "oint": 2579,
      "would": 2580,
      "Ġfine": 2581,
      "Ġduke": 2582,
      "Ġobs": 2583,
      "Ġemp": 2584,
      "ural": 2585,
      "ĠPAGE": 2586,
      "aked": 2587,
      "Ġabove": 2588,
      "ATRI": 2589,
      "Being": 2590,
      "Ġmighty": 2591,
      "Ġlonger": 2592,
      "Ġfeed": 2593,
      "DOCTOR": 2594,
      "ĠCassio": 2595,
      "Ġladies": 2596,
      "CELIA": 2597,
      "can": 2598,
      "cal": 2599,
      "ead": 2600,
      "yed": 2601,
      "Ġteach": 2602,
      "Ġsafe": 2603,
      "icked": 2604,
      "Ġoffense": 2605,
      "Ġkept": 2606,
      "Ġheads": 2607,
      "PAGE": 2608,
      "cent": 2609,
      "ual": 2610,
      "under": 2611,
      "Ġdull": 2612,
      "Ġdrown": 2613,
      "Ġshar": 2614,
      "ĠThese": 2615,
      "ĠEm": 2616,
      "Ġsecond": 2617,
      "JULIA": 2618,
      "Ġer": 2619,
      "Ġsor": 2620,
      "Ġpain": 2621,
      "Ġrevere": 2622,
      "ify": 2623,
      "ument": 2624,
      "ages": 2625,
      "Ġparts": 2626,
      "Ġlabor": 2627,
      "Ġshows": 2628,
      "BEATRI": 2629,
      "Ġcurse": 2630,
      "Ġhumor": 2631,
      "Ġpatient": 2632,
      "Ġprinces": 2633,
      "BEATRICE": 2634,
      "SERV": 2635,
      "gin": 2636,
      "mon": 2637,
      "Ġign": 2638,
      "Ġfashion": 2639,
      "cept": 2640,
      "aunt": 2641,
      "ĠDid": 2642,
      "Ġworst": 2643,
      "Ġexc": 2644,
      "Ġrob": 2645,
      "ĠRomeo": 2646,
      "comes": 2647,
      "Ġpromise": 2648,
      "Ġmurder": 2649,
      "Ġlaugh": 2650,
      "Ġangry": 2651,
      "CL": 2652,
      "CESS": 2653,
      "OT": 2654,
      "heart": 2655,
      "Ġwent": 2656,
      "Ġfive": 2657,
      "Ġbehind": 2658,
      "Ġforget": 2659,
      "Ġsucc": 2660,
      "Ġfaults": 2661,
      "ĠLuc": 2662,
      "Ġqual": 2663,
      "Ġenc": 2664,
      "ĠKate": 2665,
      "love": 2666,
      "Ġothers": 2667,
      "URDER": 2668,
      "Ġsmall": 2669,
      "PRINCESS": 2670,
      "Ġvirtuous": 2671,
      "Ġrememb": 2672,
      "Ġtemp": 2673,
      "Ġviol": 2674,
      "Ġexcellent": 2675,
      "audio": 2676,
      "URDERER": 2677,
      "LEN": 2678,
      "aves": 2679,
      "how": 2680,
      "ingly": 2681,
      "leep": 2682,
      "Ġseal": 2683,
      "Ġange": 2684,
      "ĠAre": 2685,
      "ils": 2686,
      "Ġview": 2687,
      "Ġourselves": 2688,
      "astard": 2689,
      "ardin": 2690,
      "Ġlooked": 2691,
      "Ġwrite": 2692,
      "peror": 2693,
      "Ġchoose": 2694,
      "ĠChrist": 2695,
      "Alas": 2696,
      "HOT": 2697,
      "born": 2698,
      "eg": 2699,
      "Ġba": 2700,
      "Ġbow": 2701,
      "erve": 2702,
      "Ġocc": 2703,
      "ract": 2704,
      "ĠSay": 2705,
      "ARMA": 2706,
      "ĠAlas": 2707,
      "ĠPeace": 2708,
      "ĠFarewell": 2709,
      "ĠELI": 2710,
      "ĠTell": 2711,
      "them": 2712,
      "Ġpresence": 2713,
      "BERTR": 2714,
      "Ġentertain": 2715,
      "ledge": 2716,
      "Ġconsent": 2717,
      "Ġturned": 2718,
      "Ġdelight": 2719,
      "Ġdepart": 2720,
      "Ġsatisf": 2721,
      "ZABETH": 2722,
      "SPUR": 2723,
      "HOTSPUR": 2724,
      "ARMADO": 2725,
      "ĠELIZABETH": 2726,
      "BERTRAM": 2727,
      "GU": 2728,
      "Madam": 2729,
      "POM": 2730,
      "ollow": 2731,
      "Ġwed": 2732,
      "Ġfresh": 2733,
      "asion": 2734,
      "raw": 2735,
      "Ġsole": 2736,
      "thou": 2737,
      "rupt": 2738,
      "ume": 2739,
      "Ġround": 2740,
      "Ġproceed": 2741,
      "Ġtrump": 2742,
      "ANTUS": 2743,
      "Ġmove": 2744,
      "EMANTUS": 2745,
      "osition": 2746,
      "REY": 2747,
      "PEY": 2748,
      "Ġdangerous": 2749,
      "Ġdamned": 2750,
      "APEMANTUS": 2751,
      "POMPEY": 2752,
      "NUR": 2753,
      "ude": 2754,
      "Ġyo": 2755,
      "Ġyear": 2756,
      "anch": 2757,
      "Ġstar": 2758,
      "Ġvain": 2759,
      "Ġblow": 2760,
      "EDGAR": 2761,
      "Ġbright": 2762,
      "Ġquickly": 2763,
      "Ġhurt": 2764,
      "COUNTESS": 2765,
      "Ġcruel": 2766,
      "NURSE": 2767,
      "DE": 2768,
      "Ġsn": 2769,
      "Ġmid": 2770,
      "Ġwast": 2771,
      "Ġbreat": 2772,
      "Ġthrow": 2773,
      "Ġbeard": 2774,
      "vern": 2775,
      "ĠHarry": 2776,
      "ilty": 2777,
      "Ġamong": 2778,
      "OLPH": 2779,
      "Ġblind": 2780,
      "ĠRoman": 2781,
      "ARDOLPH": 2782,
      "Ġperceive": 2783,
      "Ġgolden": 2784,
      "Ġwisdom": 2785,
      "Away": 2786,
      "FEW": 2787,
      "pher": 2788,
      "uri": 2789,
      "Ġwon": 2790,
      "Ġda": 2791,
      "Ġdec": 2792,
      "Ġherself": 2793,
      "INO": 2794,
      "ĠAd": 2795,
      "iles": 2796,
      "ĠPar": 2797,
      "ĠPom": 2798,
      "Ġgoing": 2799,
      "CHESS": 2800,
      "Ġquoth": 2801,
      "Ġquiet": 2802,
      "SEBAST": 2803,
      "LAFEW": 2804,
      "aper": 2805,
      "DUCHESS": 2806,
      "Ġfoolish": 2807,
      "Ġbrief": 2808,
      "SEBASTIAN": 2809,
      "PO": 2810,
      "ULET": 2811,
      "Whi": 2812,
      "joy": 2813,
      "ped": 2814,
      "Ġfetch": 2815,
      "Ġdin": 2816,
      "Ġpure": 2817,
      "lex": 2818,
      "Ġmeasure": 2819,
      "ĠSERV": 2820,
      "ilus": 2821,
      "ATOR": 2822,
      "Ġtroth": 2823,
      "Ġcommend": 2824,
      "Ġprayers": 2825,
      "Stand": 2826,
      "twere": 2827,
      "Unless": 2828,
      "BASTARD": 2829,
      "Ġdeliver": 2830,
      "Sweet": 2831,
      "UGH": 2832,
      "ror": 2833,
      "rate": 2834,
      "inion": 2835,
      "ises": 2836,
      "alb": 2837,
      "ĠMay": 2838,
      "ĠCITIZEN": 2839,
      "ility": 2840,
      "ĠLu": 2841,
      "LEBE": 2842,
      "Ġarg": 2843,
      "Ġjew": 2844,
      "Ġflatter": 2845,
      "Ġchast": 2846,
      "thee": 2847,
      "Ġchur": 2848,
      "Ġpract": 2849,
      "Ġbitter": 2850,
      "Ġsharp": 2851,
      "LEBEIAN": 2852,
      "BIAN": 2853,
      "Con": 2854,
      "SA": 2855,
      "ax": 2856,
      "bury": 2857,
      "do": 2858,
      "ding": 2859,
      "good": 2860,
      "where": 2861,
      "Ġsch": 2862,
      "Ġfier": 2863,
      "Ġevil": 2864,
      "arence": 2865,
      "Ġoffer": 2866,
      "itted": 2867,
      "bled": 2868,
      "Ġfools": 2869,
      "BASS": 2870,
      "Ġcounter": 2871,
      "Whom": 2872,
      "HUM": 2873,
      "SI": 2874,
      "SAL": 2875,
      "Under": 2876,
      "arge": 2877,
      "Ġpiece": 2878,
      "Ġele": 2879,
      "Ġstud": 2880,
      "Ġshake": 2881,
      "ĠLove": 2882,
      "icul": 2883,
      "Ġjealous": 2884,
      "Ġprov": 2885,
      "Ġfearful": 2886,
      "Ġorder": 2887,
      "Ġquarrel": 2888,
      "Ġsorry": 2889,
      "NES": 2890,
      "Ġdest": 2891,
      "arch": 2892,
      "ider": 2893,
      "Ġlived": 2894,
      "ĠAway": 2895,
      "ONIUS": 2896,
      "Ġneigh": 2897,
      "Ġprot": 2898,
      "Ġsaf": 2899,
      "ĠRI": 2900,
      "ĠJul": 2901,
      "cius": 2902,
      "Because": 2903,
      "Ġcalls": 2904,
      "Ġsmo": 2905,
      "twas": 2906,
      "BROKE": 2907,
      "SIR": 2908,
      "via": 2909,
      "Ġtent": 2910,
      "Ġmed": 2911,
      "stance": 2912,
      "Ġforsw": 2913,
      "ided": 2914,
      "urst": 2915,
      "ĠCan": 2916,
      "INGMAN": 2917,
      "lock": 2918,
      "Ġlaid": 2919,
      "Ġglory": 2920,
      "THERS": 2921,
      "Ġgreen": 2922,
      "TRANIO": 2923,
      "ardinal": 2924,
      "Bet": 2925,
      "CAM": 2926,
      "Ġsort": 2927,
      "Ġmasters": 2928,
      "Ġwood": 2929,
      "reed": 2930,
      "Ġdri": 2931,
      "Ġinno": 2932,
      "irc": 2933,
      "Ġshape": 2934,
      "ĠMURDERER": 2935,
      "rue": 2936,
      "Ġblame": 2937,
      "Ġplague": 2938,
      "pey": 2939,
      "Ġalive": 2940,
      "CAP": 2941,
      "ĠClaudio": 2942,
      "Ġlearn": 2943,
      "BURY": 2944,
      "Into": 2945,
      "OS": 2946,
      "RIUS": 2947,
      "VIUS": 2948,
      "eas": 2949,
      "what": 2950,
      "woman": 2951,
      "Ġet": 2952,
      "Ġver": 2953,
      "Ġfrown": 2954,
      "Ġlend": 2955,
      "Ġnaught": 2956,
      "Ġpal": 2957,
      "chief": 2958,
      "Ġlibert": 2959,
      "ames": 2960,
      "Ġknock": 2961,
      "ĠFool": 2962,
      "ORA": 2963,
      "hered": 2964,
      "ĠTimon": 2965,
      "Ġfled": 2966,
      "Ġbreed": 2967,
      "RIAN": 2968,
      "Ġsummer": 2969,
      "ĠRICHARD": 2970,
      "Doth": 2971,
      "Ex": 2972,
      "IP": 2973,
      "su": 2974,
      "Ġtaken": 2975,
      "erv": 2976,
      "esides": 2977,
      "Ġcarry": 2978,
      "Ġobey": 2979,
      "Ġpains": 2980,
      "Ġinv": 2981,
      "illes": 2982,
      "Ġequ": 2983,
      "Ġstop": 2984,
      "ĠHonor": 2985,
      "eaven": 2986,
      "ANNE": 2987,
      "Ġnoise": 2988,
      "ters": 2989,
      "Ġours": 2990,
      "artius": 2991,
      "Ġswift": 2992,
      "ĠTy": 2993,
      "unning": 2994,
      "Ġhonesty": 2995,
      "Ġgreater": 2996,
      "orship": 2997,
      "ETRIUS": 2998,
      "Ġwhore": 2999
    },
    "merges": [
      [
        "č",
        "Ċ"
      ],
      [
        "Ġ",
        "t"
      ],
      [
        "h",
        "e"
      ],
      [
        "Ġ",
        "a"
      ],
      [
        "o",
        "u"
      ],
      [
        "Ġ",
        "s"
      ],
      [
        "i",
        "n"
      ],
      [
        "Ġ",
        "m"
      ],
      [
        "Ġ",
        "w"
      ],
      [
        "r",
        "e"
      ],
      [
        "h",
        "a"
      ],
      [
        "n",
        "d"
      ],
      [
        "Ġt",
        "he"
      ],
      [
        "Ġ",
        "b"
      ],
      [
        "i",
        "s"
      ],
      [
        "o",
        "r"
      ],
      [
        "l",
        "l"
      ],
      [
        "Ġ",
        "f"
      ],
      [
        "e",
        "r"
      ],
      [
        "o",
        "n"
      ],
      [
        "i",
        "t"
      ],
      [
        "Ġ",
        "d"
      ],
      [
        "e",
        "s"
      ],
      [
        "Ġ",
        "c"
      ],
      [
        "Ġ",
        "l"
      ],
      [
        "Ġ",
        "n"
      ],
      [
        "Ġ",
        "o"
      ],
      [
        "Ġt",
        "h"
      ],
      [
        "Ġ",
        "y"
      ],
      [
        "e",
        "n"
      ],
      [
        "Ġ",
        "I"
      ],
      [
        "Ġ",
        "h"
      ],
      [
        "a",
        "r"
      ],
      [
        "Ġy",
        "ou"
      ],
      [
        "Ġ",
        "p"
      ],
      [
        "ha",
        "t"
      ],
      [
        "Ġt",
        "o"
      ],
      [
        "e",
        "d"
      ],
      [
        "Ġ",
        "he"
      ],
      [
        "o",
        "t"
      ],
      [
        "Ġo",
        "f"
      ],
      [
        "Ġa",
        "nd"
      ],
      [
        "v",
        "e"
      ],
      [
        "a",
        "n"
      ],
      [
        "o",
        "w"
      ],
      [
        "in",
        "g"
      ],
      [
        "o",
        "m"
      ],
      [
        "s",
        "t"
      ],
      [
        "Ġ",
        "g"
      ],
      [
        "a",
        "t"
      ],
      [
        "Ġb",
        "e"
      ],
      [
        "Ġ",
        "in"
      ],
      [
        "s",
        "e"
      ],
      [
        "Ġ",
        "ha"
      ],
      [
        "c",
        "e"
      ],
      [
        "Ġm",
        "y"
      ],
      [
        "e",
        "t"
      ],
      [
        "a",
        "y"
      ],
      [
        "l",
        "d"
      ],
      [
        "l",
        "e"
      ],
      [
        "u",
        "t"
      ],
      [
        "i",
        "r"
      ],
      [
        "Ġm",
        "e"
      ],
      [
        "i",
        "m"
      ],
      [
        "it",
        "h"
      ],
      [
        "g",
        "h"
      ],
      [
        "c",
        "h"
      ],
      [
        "Ġn",
        "ot"
      ],
      [
        "i",
        "ll"
      ],
      [
        "Ġ",
        "is"
      ],
      [
        "'",
        "s"
      ],
      [
        "Ġt",
        "hat"
      ],
      [
        "A",
        "nd"
      ],
      [
        "Ġ",
        "e"
      ],
      [
        "o",
        "o"
      ],
      [
        "k",
        "e"
      ],
      [
        "Ġf",
        "or"
      ],
      [
        "Ġ",
        "u"
      ],
      [
        "Ġw",
        "e"
      ],
      [
        "T",
        "he"
      ],
      [
        "a",
        "s"
      ],
      [
        "Ġ",
        "it"
      ],
      [
        "a",
        "d"
      ],
      [
        "Ġw",
        "ith"
      ],
      [
        "en",
        "t"
      ],
      [
        "r",
        "i"
      ],
      [
        "Ġyou",
        "r"
      ],
      [
        "gh",
        "t"
      ],
      [
        "a",
        "l"
      ],
      [
        "Ġh",
        "is"
      ],
      [
        "he",
        "r"
      ],
      [
        "Ġs",
        "t"
      ],
      [
        "r",
        "a"
      ],
      [
        "Ġth",
        "ou"
      ],
      [
        "i",
        "d"
      ],
      [
        "ou",
        "r"
      ],
      [
        "l",
        "y"
      ],
      [
        "Ġth",
        "is"
      ],
      [
        "Ġh",
        "im"
      ],
      [
        "Ġl",
        "i"
      ],
      [
        "Ġha",
        "ve"
      ],
      [
        "Ġ",
        "re"
      ],
      [
        "om",
        "e"
      ],
      [
        "Ġ",
        "W"
      ],
      [
        "Ġs",
        "o"
      ],
      [
        "Ġ",
        "k"
      ],
      [
        "o",
        "re"
      ],
      [
        "or",
        "d"
      ],
      [
        "Ġ",
        "on"
      ],
      [
        "u",
        "r"
      ],
      [
        "Ġa",
        "s"
      ],
      [
        "v",
        "er"
      ],
      [
        "ou",
        "ld"
      ],
      [
        "Ġ",
        "H"
      ],
      [
        "-",
        "-"
      ],
      [
        "a",
        "in"
      ],
      [
        "Ġd",
        "e"
      ],
      [
        "Ġw",
        "ill"
      ],
      [
        "h",
        "i"
      ],
      [
        "oo",
        "d"
      ],
      [
        "Ġd",
        "o"
      ],
      [
        "r",
        "o"
      ],
      [
        "u",
        "s"
      ],
      [
        "Ġs",
        "ha"
      ],
      [
        "c",
        "k"
      ],
      [
        "es",
        "t"
      ],
      [
        "e",
        "a"
      ],
      [
        "A",
        "N"
      ],
      [
        "a",
        "m"
      ],
      [
        "Ġ",
        "S"
      ],
      [
        "es",
        "s"
      ],
      [
        "i",
        "on"
      ],
      [
        "Ġhe",
        "r"
      ],
      [
        "E",
        "R"
      ],
      [
        "a",
        "nd"
      ],
      [
        "t",
        "h"
      ],
      [
        "T",
        "h"
      ],
      [
        "U",
        "S"
      ],
      [
        "Ġs",
        "e"
      ],
      [
        "Ġl",
        "o"
      ],
      [
        "Ġth",
        "y"
      ],
      [
        "I",
        "N"
      ],
      [
        "A",
        "R"
      ],
      [
        "Ġn",
        "o"
      ],
      [
        "g",
        "e"
      ],
      [
        "E",
        "N"
      ],
      [
        "Ġs",
        "u"
      ],
      [
        "Ġa",
        "n"
      ],
      [
        "Ġ",
        "A"
      ],
      [
        "Ġa",
        "ll"
      ],
      [
        "Ġ",
        "M"
      ],
      [
        "a",
        "ke"
      ],
      [
        "Ġ",
        "C"
      ],
      [
        "t",
        "er"
      ],
      [
        "Ġ",
        "'"
      ],
      [
        "e",
        "ll"
      ],
      [
        "Ġb",
        "ut"
      ],
      [
        "T",
        "o"
      ],
      [
        "i",
        "l"
      ],
      [
        "r",
        "u"
      ],
      [
        "Ġs",
        "p"
      ],
      [
        "Ġf",
        "a"
      ],
      [
        "i",
        "f"
      ],
      [
        "c",
        "t"
      ],
      [
        "i",
        "ght"
      ],
      [
        "Ġsha",
        "ll"
      ],
      [
        "ha",
        "n"
      ],
      [
        "e",
        "ar"
      ],
      [
        "Ġk",
        "n"
      ],
      [
        "Ġ",
        "B"
      ],
      [
        "Ġthe",
        "e"
      ],
      [
        "T",
        "hat"
      ],
      [
        "E",
        "S"
      ],
      [
        "Ġa",
        "re"
      ],
      [
        "h",
        "o"
      ],
      [
        "Ġ",
        "v"
      ],
      [
        "Ġ",
        "Ġ"
      ],
      [
        "r",
        "om"
      ],
      [
        "Ġ",
        "L"
      ],
      [
        "Ġ",
        "G"
      ],
      [
        "Ġ",
        "our"
      ],
      [
        "Ġb",
        "y"
      ],
      [
        "a",
        "st"
      ],
      [
        "Ġs",
        "h"
      ],
      [
        "ar",
        "t"
      ],
      [
        "O",
        "N"
      ],
      [
        "Ġn",
        "e"
      ],
      [
        "in",
        "e"
      ],
      [
        "Ġm",
        "an"
      ],
      [
        "ou",
        "s"
      ],
      [
        "ar",
        "d"
      ],
      [
        "q",
        "u"
      ],
      [
        "Ġa",
        "m"
      ],
      [
        "se",
        "l"
      ],
      [
        "Ġ",
        "P"
      ],
      [
        "e",
        "nd"
      ],
      [
        "Ġu",
        "p"
      ],
      [
        "Ġ",
        "F"
      ],
      [
        "Ġm",
        "u"
      ],
      [
        "S",
        "T"
      ],
      [
        "Ġ",
        "O"
      ],
      [
        "on",
        "e"
      ],
      [
        "n",
        "t"
      ],
      [
        "Ġa",
        "t"
      ],
      [
        "'",
        "ll"
      ],
      [
        "ou",
        "t"
      ],
      [
        "O",
        "R"
      ],
      [
        "Ġc",
        "om"
      ],
      [
        "i",
        "e"
      ],
      [
        "re",
        "s"
      ],
      [
        "in",
        "d"
      ],
      [
        "hi",
        "ch"
      ],
      [
        "he",
        "n"
      ],
      [
        "an",
        "t"
      ],
      [
        "Ġg",
        "ood"
      ],
      [
        "on",
        "g"
      ],
      [
        "e",
        "m"
      ],
      [
        "Ġl",
        "ord"
      ],
      [
        "i",
        "ve"
      ],
      [
        "Ġg",
        "o"
      ],
      [
        "Ġs",
        "he"
      ],
      [
        "Ġc",
        "on"
      ],
      [
        "O",
        "L"
      ],
      [
        "Ġ",
        "The"
      ],
      [
        "ot",
        "h"
      ],
      [
        "Ġf",
        "rom"
      ],
      [
        "v",
        "en"
      ],
      [
        "Ġ",
        "N"
      ],
      [
        "u",
        "l"
      ],
      [
        "r",
        "y"
      ],
      [
        "Ġw",
        "hat"
      ],
      [
        "r",
        "ow"
      ],
      [
        "e",
        "re"
      ],
      [
        "he",
        "re"
      ],
      [
        "b",
        "le"
      ],
      [
        "Ġb",
        "l"
      ],
      [
        "er",
        "s"
      ],
      [
        "A",
        "L"
      ],
      [
        "Ġlo",
        "ve"
      ],
      [
        "Ġw",
        "as"
      ],
      [
        "Ġkn",
        "ow"
      ],
      [
        "u",
        "re"
      ],
      [
        "Ġm",
        "ore"
      ],
      [
        "Ġs",
        "w"
      ],
      [
        "Ġw",
        "ould"
      ],
      [
        "Ġthe",
        "m"
      ],
      [
        "p",
        "p"
      ],
      [
        "at",
        "h"
      ],
      [
        "Ġc",
        "an"
      ],
      [
        "Ġp",
        "r"
      ],
      [
        "e",
        "p"
      ],
      [
        "Ġthe",
        "ir"
      ],
      [
        "a",
        "u"
      ],
      [
        "Ġn",
        "ow"
      ],
      [
        "a",
        "ll"
      ],
      [
        "B",
        "ut"
      ],
      [
        "Ġ",
        "hat"
      ],
      [
        "i",
        "c"
      ],
      [
        "sel",
        "f"
      ],
      [
        "Ġ",
        "D"
      ],
      [
        "Y",
        "ou"
      ],
      [
        "o",
        "st"
      ],
      [
        "e",
        "l"
      ],
      [
        "Ġthe",
        "y"
      ],
      [
        "Ġ",
        "E"
      ],
      [
        "Ġt",
        "han"
      ],
      [
        "f",
        "e"
      ],
      [
        "Ġs",
        "ir"
      ],
      [
        "Ġu",
        "s"
      ],
      [
        "L",
        "E"
      ],
      [
        "Ġa",
        "r"
      ],
      [
        "or",
        "t"
      ],
      [
        "in",
        "k"
      ],
      [
        "at",
        "e"
      ],
      [
        "Ġ",
        "or"
      ],
      [
        "Ġthe",
        "re"
      ],
      [
        "I",
        "O"
      ],
      [
        "a",
        "re"
      ],
      [
        "Ġs",
        "ay"
      ],
      [
        "Ġw",
        "or"
      ],
      [
        ".",
        "--"
      ],
      [
        "Ġ",
        "if"
      ],
      [
        "re",
        "at"
      ],
      [
        "Ġhe",
        "re"
      ],
      [
        "v",
        "es"
      ],
      [
        "o",
        "l"
      ],
      [
        "h",
        "y"
      ],
      [
        "oo",
        "k"
      ],
      [
        "a",
        "k"
      ],
      [
        "am",
        "e"
      ],
      [
        "n",
        "g"
      ],
      [
        "Ġli",
        "ke"
      ],
      [
        "Ġhat",
        "h"
      ],
      [
        "at",
        "her"
      ],
      [
        "Ġwe",
        "ll"
      ],
      [
        "Ġl",
        "et"
      ],
      [
        "T",
        "H"
      ],
      [
        "o",
        "d"
      ],
      [
        "i",
        "g"
      ],
      [
        "Ġ",
        "j"
      ],
      [
        "F",
        "or"
      ],
      [
        "Ġse",
        "e"
      ],
      [
        "C",
        "H"
      ],
      [
        "Ġ",
        "T"
      ],
      [
        "u",
        "e"
      ],
      [
        "Ġthe",
        "n"
      ],
      [
        "Ġd",
        "is"
      ],
      [
        "Ġon",
        "e"
      ],
      [
        "u",
        "m"
      ],
      [
        "ou",
        "nd"
      ],
      [
        "Ġp",
        "l"
      ],
      [
        "Ġd",
        "id"
      ],
      [
        "f",
        "ore"
      ],
      [
        "ot",
        "her"
      ],
      [
        "Ġsh",
        "ould"
      ],
      [
        "E",
        "L"
      ],
      [
        "Ġu",
        "n"
      ],
      [
        "Ġm",
        "ay"
      ],
      [
        "IN",
        "G"
      ],
      [
        "Ġ",
        "r"
      ],
      [
        "g",
        "ain"
      ],
      [
        "Ġm",
        "ad"
      ],
      [
        "I",
        "A"
      ],
      [
        "R",
        "O"
      ],
      [
        "Ġm",
        "ake"
      ],
      [
        "an",
        "ce"
      ],
      [
        "Ġb",
        "r"
      ],
      [
        "u",
        "n"
      ],
      [
        "Ġc",
        "ome"
      ],
      [
        "Ġh",
        "o"
      ],
      [
        "Ġ",
        "qu"
      ],
      [
        "ĠW",
        "hat"
      ],
      [
        "Ġmu",
        "st"
      ],
      [
        "i",
        "ce"
      ],
      [
        "ea",
        "k"
      ],
      [
        "Ġup",
        "on"
      ],
      [
        "ver",
        "y"
      ],
      [
        "Ġs",
        "a"
      ],
      [
        "it",
        "y"
      ],
      [
        "Ġ",
        "Th"
      ],
      [
        "Ġw",
        "hich"
      ],
      [
        "Ġ",
        "out"
      ],
      [
        "Ġwe",
        "re"
      ],
      [
        "p",
        "e"
      ],
      [
        "im",
        "e"
      ],
      [
        "Ġha",
        "d"
      ],
      [
        "A",
        "s"
      ],
      [
        "Ġto",
        "o"
      ],
      [
        "Ġ",
        "R"
      ],
      [
        "Ġp",
        "ro"
      ],
      [
        "i",
        "re"
      ],
      [
        "I",
        "US"
      ],
      [
        "K",
        "ING"
      ],
      [
        "Ġe",
        "y"
      ],
      [
        "Ġhe",
        "art"
      ],
      [
        "Ġsu",
        "ch"
      ],
      [
        "Ġt",
        "ru"
      ],
      [
        "Ġ",
        "\""
      ],
      [
        "Ġp",
        "o"
      ],
      [
        "is",
        "h"
      ],
      [
        "Ġ",
        "en"
      ],
      [
        "M",
        "y"
      ],
      [
        "Ġw",
        "hen"
      ],
      [
        "i",
        "es"
      ],
      [
        "W",
        "hat"
      ],
      [
        "Ġha",
        "nd"
      ],
      [
        "p",
        "t"
      ],
      [
        "or",
        "n"
      ],
      [
        "Ġ",
        "K"
      ],
      [
        "n",
        "ess"
      ],
      [
        "v",
        "ed"
      ],
      [
        "Ġh",
        "on"
      ],
      [
        "a",
        "ve"
      ],
      [
        "Ġe",
        "x"
      ],
      [
        "Ġ",
        "And"
      ],
      [
        "Ġa",
        "gain"
      ],
      [
        "ou",
        "gh"
      ],
      [
        "is",
        "t"
      ],
      [
        "Ġb",
        "o"
      ],
      [
        "en",
        "ce"
      ],
      [
        "Ġa",
        "l"
      ],
      [
        "Ġy",
        "et"
      ],
      [
        "I",
        "R"
      ],
      [
        "w",
        "n"
      ],
      [
        "Ġw",
        "ho"
      ],
      [
        "he",
        "d"
      ],
      [
        "is",
        "e"
      ],
      [
        "e",
        "et"
      ],
      [
        "o",
        "se"
      ],
      [
        "Ġsp",
        "eak"
      ],
      [
        "f",
        "f"
      ],
      [
        "as",
        "s"
      ],
      [
        "i",
        "ck"
      ],
      [
        "ur",
        "n"
      ],
      [
        "Ġof",
        "f"
      ],
      [
        "Ġm",
        "ine"
      ],
      [
        "Ġthe",
        "se"
      ],
      [
        "Ġth",
        "ink"
      ],
      [
        "Ġs",
        "ome"
      ],
      [
        "a",
        "ck"
      ],
      [
        "ĠH",
        "e"
      ],
      [
        "Ġf",
        "o"
      ],
      [
        "I",
        "f"
      ],
      [
        "AR",
        "D"
      ],
      [
        "A",
        "M"
      ],
      [
        "t",
        "her"
      ],
      [
        "W",
        "ith"
      ],
      [
        "Ġhe",
        "a"
      ],
      [
        "Ġf",
        "ri"
      ],
      [
        "L",
        "O"
      ],
      [
        "ing",
        "s"
      ],
      [
        "Ġf",
        "ather"
      ],
      [
        "Ġf",
        "l"
      ],
      [
        "Ġg",
        "reat"
      ],
      [
        "I",
        "n"
      ],
      [
        "ad",
        "y"
      ],
      [
        "f",
        "ul"
      ],
      [
        "Ġt",
        "ime"
      ],
      [
        "ES",
        "S"
      ],
      [
        "Ġa",
        "b"
      ],
      [
        "C",
        "E"
      ],
      [
        "Ġ",
        "J"
      ],
      [
        "u",
        "st"
      ],
      [
        "ow",
        "n"
      ],
      [
        "w",
        "ay"
      ],
      [
        "Ġg",
        "ive"
      ],
      [
        "d",
        "e"
      ],
      [
        "t",
        "o"
      ],
      [
        "Ġh",
        "ow"
      ],
      [
        "Ġd",
        "ay"
      ],
      [
        "at",
        "ion"
      ],
      [
        "Ġ",
        "ri"
      ],
      [
        "AN",
        "T"
      ],
      [
        "H",
        "e"
      ],
      [
        "Ġb",
        "re"
      ],
      [
        "ĠB",
        "ut"
      ],
      [
        "in",
        "ce"
      ],
      [
        "Ġmu",
        "ch"
      ],
      [
        "n",
        "ot"
      ],
      [
        "Ġc",
        "ha"
      ],
      [
        "Ġm",
        "ost"
      ],
      [
        "Ġt",
        "ake"
      ],
      [
        "nd",
        "er"
      ],
      [
        "ast",
        "er"
      ],
      [
        "a",
        "ge"
      ],
      [
        "res",
        "s"
      ],
      [
        "Ġt",
        "ell"
      ],
      [
        "Ġne",
        "ver"
      ],
      [
        "A",
        "T"
      ],
      [
        "Ġw",
        "here"
      ],
      [
        "Ġfri",
        "end"
      ],
      [
        "a",
        "g"
      ],
      [
        "Ġc",
        "o"
      ],
      [
        "O",
        "f"
      ],
      [
        "c",
        "i"
      ],
      [
        "Ġ",
        "You"
      ],
      [
        "ent",
        "le"
      ],
      [
        "Ġd",
        "es"
      ],
      [
        "I",
        "L"
      ],
      [
        "Ġg",
        "ra"
      ],
      [
        "u",
        "ll"
      ],
      [
        "Ġar",
        "t"
      ],
      [
        "or",
        "s"
      ],
      [
        "Ġl",
        "ea"
      ],
      [
        "Ġhe",
        "ar"
      ],
      [
        "Ġm",
        "en"
      ],
      [
        "Ġ",
        "ro"
      ],
      [
        "Ġm",
        "ar"
      ],
      [
        "ig",
        "n"
      ],
      [
        "it",
        "her"
      ],
      [
        "Ġbe",
        "t"
      ],
      [
        "Ġd",
        "oth"
      ],
      [
        "Ġl",
        "ook"
      ],
      [
        "e",
        "f"
      ],
      [
        "Ġli",
        "fe"
      ],
      [
        "R",
        "I"
      ],
      [
        "Ġbl",
        "ood"
      ],
      [
        "Ġt",
        "w"
      ],
      [
        "Ġw",
        "ord"
      ],
      [
        "W",
        "hich"
      ],
      [
        "re",
        "e"
      ],
      [
        "it",
        "e"
      ],
      [
        "ou",
        "l"
      ],
      [
        "Ġfa",
        "ir"
      ],
      [
        "m",
        "ent"
      ],
      [
        "Ġde",
        "ath"
      ],
      [
        "B",
        "e"
      ],
      [
        "S",
        "E"
      ],
      [
        "l",
        "i"
      ],
      [
        "ĠK",
        "ing"
      ],
      [
        "Ġ",
        "Y"
      ],
      [
        "a",
        "se"
      ],
      [
        "t",
        "he"
      ],
      [
        "ou",
        "nt"
      ],
      [
        "Ġw",
        "r"
      ],
      [
        "er",
        "t"
      ],
      [
        "L",
        "A"
      ],
      [
        "i",
        "gh"
      ],
      [
        "Ġp",
        "art"
      ],
      [
        "s",
        "s"
      ],
      [
        "Ġf",
        "ear"
      ],
      [
        "Ġg",
        "entle"
      ],
      [
        "Th",
        "is"
      ],
      [
        "Ġt",
        "r"
      ],
      [
        "I",
        "C"
      ],
      [
        "re",
        "d"
      ],
      [
        "S",
        "o"
      ],
      [
        "U",
        "C"
      ],
      [
        "Ġo",
        "wn"
      ],
      [
        "P",
        "H"
      ],
      [
        "Ġan",
        "y"
      ],
      [
        "F",
        "F"
      ],
      [
        "oo",
        "l"
      ],
      [
        "au",
        "ght"
      ],
      [
        "a",
        "p"
      ],
      [
        "it",
        "t"
      ],
      [
        "ar",
        "s"
      ],
      [
        "E",
        "T"
      ],
      [
        "Ġp",
        "le"
      ],
      [
        "e",
        "e"
      ],
      [
        "i",
        "o"
      ],
      [
        "ĠI",
        "f"
      ],
      [
        "Ġsw",
        "eet"
      ],
      [
        "Ġhea",
        "ven"
      ],
      [
        "Ġp",
        "er"
      ],
      [
        "m",
        "an"
      ],
      [
        "Ġs",
        "c"
      ],
      [
        "l",
        "o"
      ],
      [
        "T",
        "is"
      ],
      [
        "W",
        "ho"
      ],
      [
        "Ġ",
        "ra"
      ],
      [
        "Ġs",
        "on"
      ],
      [
        "Ġs",
        "er"
      ],
      [
        "Ġa",
        "d"
      ],
      [
        "Ġmad",
        "e"
      ],
      [
        "Ġtru",
        "e"
      ],
      [
        "Ġey",
        "es"
      ],
      [
        "Ġc",
        "all"
      ],
      [
        "id",
        "e"
      ],
      [
        "Ġn",
        "ight"
      ],
      [
        "h",
        "ing"
      ],
      [
        "Ġcom",
        "m"
      ],
      [
        "Ġo",
        "ther"
      ],
      [
        "an",
        "s"
      ],
      [
        "row",
        "n"
      ],
      [
        "Ġw",
        "h"
      ],
      [
        "w",
        "ard"
      ],
      [
        "Ġ",
        "very"
      ],
      [
        "Ġha",
        "st"
      ],
      [
        "b",
        "l"
      ],
      [
        "Ġcan",
        "not"
      ],
      [
        "or",
        "row"
      ],
      [
        "ct",
        "ion"
      ],
      [
        "m",
        "e"
      ],
      [
        "Ġ",
        "ke"
      ],
      [
        "AN",
        "D"
      ],
      [
        "H",
        "ow"
      ],
      [
        "C",
        "A"
      ],
      [
        "W",
        "hen"
      ],
      [
        "ere",
        "d"
      ],
      [
        "Ġwor",
        "ld"
      ],
      [
        "Ġhon",
        "or"
      ],
      [
        "t",
        "is"
      ],
      [
        "Ġp",
        "re"
      ],
      [
        "Ġk",
        "ing"
      ],
      [
        "a",
        "ble"
      ],
      [
        "Ġa",
        "pp"
      ],
      [
        "Ġst",
        "r"
      ],
      [
        "v",
        "ing"
      ],
      [
        "Ġs",
        "l"
      ],
      [
        "ĠG",
        "od"
      ],
      [
        "a",
        "c"
      ],
      [
        "Ġbe",
        "en"
      ],
      [
        "Ġpr",
        "ay"
      ],
      [
        "ll",
        "ow"
      ],
      [
        "Ġd",
        "one"
      ],
      [
        "Th",
        "ou"
      ],
      [
        "U",
        "R"
      ],
      [
        "Ġw",
        "it"
      ],
      [
        "p",
        "er"
      ],
      [
        "s",
        "w"
      ],
      [
        "n",
        "ce"
      ],
      [
        "Ġm",
        "o"
      ],
      [
        "Ġ",
        "im"
      ],
      [
        "Q",
        "U"
      ],
      [
        "e",
        "en"
      ],
      [
        "b",
        "er"
      ],
      [
        "Ġw",
        "ay"
      ],
      [
        "T",
        "I"
      ],
      [
        "Ġa",
        "f"
      ],
      [
        "a",
        "ce"
      ],
      [
        "ain",
        "t"
      ],
      [
        "u",
        "d"
      ],
      [
        "Ġa",
        "way"
      ],
      [
        "Ġcom",
        "p"
      ],
      [
        "Ġ",
        "ru"
      ],
      [
        "ĠW",
        "hy"
      ],
      [
        "O",
        "r"
      ],
      [
        "Ġn",
        "ame"
      ],
      [
        "f",
        "or"
      ],
      [
        "E",
        "M"
      ],
      [
        "IR",
        "ST"
      ],
      [
        "I",
        "s"
      ],
      [
        "c",
        "c"
      ],
      [
        "Ġl",
        "e"
      ],
      [
        "F",
        "IRST"
      ],
      [
        "Ġw",
        "ar"
      ],
      [
        "Ġl",
        "a"
      ],
      [
        "Ġn",
        "or"
      ],
      [
        "Ġbe",
        "g"
      ],
      [
        "Ġc",
        "l"
      ],
      [
        "l",
        "ess"
      ],
      [
        "p",
        "s"
      ],
      [
        "EN",
        "T"
      ],
      [
        "ĠL",
        "ord"
      ],
      [
        "ĠN",
        "o"
      ],
      [
        "Ġbr",
        "other"
      ],
      [
        "k",
        "s"
      ],
      [
        "Ġm",
        "ight"
      ],
      [
        "W",
        "e"
      ],
      [
        "Ġcon",
        "t"
      ],
      [
        "Ġp",
        "res"
      ],
      [
        "Ġw",
        "om"
      ],
      [
        "is",
        "s"
      ],
      [
        "ear",
        "s"
      ],
      [
        "Ġthou",
        "ght"
      ],
      [
        "The",
        "re"
      ],
      [
        "if",
        "e"
      ],
      [
        "C",
        "ON"
      ],
      [
        "Ġst",
        "and"
      ],
      [
        "Ġno",
        "ble"
      ],
      [
        "Ġlea",
        "ve"
      ],
      [
        "D",
        "U"
      ],
      [
        "W",
        "here"
      ],
      [
        "Ġhe",
        "ad"
      ],
      [
        "I",
        "t"
      ],
      [
        "c",
        "ome"
      ],
      [
        "Ġd",
        "own"
      ],
      [
        "as",
        "on"
      ],
      [
        "Ġo",
        "ld"
      ],
      [
        "Ġar",
        "m"
      ],
      [
        "an",
        "g"
      ],
      [
        "E",
        "D"
      ],
      [
        "au",
        "se"
      ],
      [
        "ĠM",
        "y"
      ],
      [
        "ow",
        "er"
      ],
      [
        "Ġha",
        "r"
      ],
      [
        "l",
        "and"
      ],
      [
        "Ġl",
        "ong"
      ],
      [
        "W",
        "hy"
      ],
      [
        "b",
        "e"
      ],
      [
        "Ġbe",
        "fore"
      ],
      [
        "Ġth",
        "us"
      ],
      [
        "ir",
        "st"
      ],
      [
        "l",
        "es"
      ],
      [
        "Ġne",
        "w"
      ],
      [
        "B",
        "y"
      ],
      [
        "Ġc",
        "ould"
      ],
      [
        "Ġe",
        "ar"
      ],
      [
        "Ġre",
        "m"
      ],
      [
        "Ġc",
        "our"
      ],
      [
        "ĠL",
        "et"
      ],
      [
        "ĠS",
        "ir"
      ],
      [
        "Ġpo",
        "or"
      ],
      [
        "Ġs",
        "oul"
      ],
      [
        "n",
        "e"
      ],
      [
        "Ġde",
        "ad"
      ],
      [
        "t",
        "y"
      ],
      [
        "ha",
        "ll"
      ],
      [
        "ar",
        "k"
      ],
      [
        "Ġp",
        "ur"
      ],
      [
        "Ġe",
        "ver"
      ],
      [
        "u",
        "ke"
      ],
      [
        "Ġbe",
        "ing"
      ],
      [
        "d",
        "s"
      ],
      [
        "p",
        "le"
      ],
      [
        "Ġcom",
        "es"
      ],
      [
        "ST",
        "A"
      ],
      [
        "OR",
        "D"
      ],
      [
        "N",
        "o"
      ],
      [
        "i",
        "ous"
      ],
      [
        "I",
        "AN"
      ],
      [
        "a",
        "ch"
      ],
      [
        "ĠI",
        "t"
      ],
      [
        "Ġe",
        "nd"
      ],
      [
        "Ġbet",
        "ter"
      ],
      [
        "ou",
        "se"
      ],
      [
        "Ġsh",
        "ow"
      ],
      [
        "ĠP",
        "r"
      ],
      [
        "ea",
        "ce"
      ],
      [
        "Ġf",
        "ind"
      ],
      [
        "Ġb",
        "est"
      ],
      [
        "nt",
        "o"
      ],
      [
        "IN",
        "E"
      ],
      [
        "ĠH",
        "ow"
      ],
      [
        "he",
        "s"
      ],
      [
        "R",
        "A"
      ],
      [
        "R",
        "IN"
      ],
      [
        "at",
        "ter"
      ],
      [
        "Ġre",
        "p"
      ],
      [
        "Ġst",
        "ill"
      ],
      [
        "Ġl",
        "ady"
      ],
      [
        "Ġtw",
        "o"
      ],
      [
        "ĠThe",
        "re"
      ],
      [
        "Ġke",
        "ep"
      ],
      [
        "I",
        "S"
      ],
      [
        "ou",
        "ght"
      ],
      [
        "ak",
        "es"
      ],
      [
        "o",
        "s"
      ],
      [
        "Ġb",
        "oth"
      ],
      [
        "w",
        "ell"
      ],
      [
        "Ġm",
        "er"
      ],
      [
        "ĠC",
        "ome"
      ],
      [
        "L",
        "et"
      ],
      [
        "i",
        "ed"
      ],
      [
        "o",
        "y"
      ],
      [
        "B",
        "E"
      ],
      [
        "Ġin",
        "to"
      ],
      [
        "Ġbe",
        "ar"
      ],
      [
        "Ġmy",
        "self"
      ],
      [
        ".",
        "\""
      ],
      [
        "B",
        "ER"
      ],
      [
        "Ġli",
        "ve"
      ],
      [
        "e",
        "w"
      ],
      [
        "i",
        "us"
      ],
      [
        "aught",
        "er"
      ],
      [
        "Ġe",
        "very"
      ],
      [
        "un",
        "e"
      ],
      [
        "itt",
        "le"
      ],
      [
        "Ġman",
        "y"
      ],
      [
        "Ġs",
        "m"
      ],
      [
        "et",
        "h"
      ],
      [
        "P",
        "RIN"
      ],
      [
        "Ġnot",
        "hing"
      ],
      [
        "Ġb",
        "ra"
      ],
      [
        "Ġf",
        "ool"
      ],
      [
        "hi",
        "p"
      ],
      [
        "CON",
        "D"
      ],
      [
        "R",
        "U"
      ],
      [
        "Ġ",
        "ent"
      ],
      [
        "SE",
        "COND"
      ],
      [
        "N",
        "ow"
      ],
      [
        "Ġm",
        "aster"
      ],
      [
        "i",
        "er"
      ],
      [
        "Ġp",
        "ri"
      ],
      [
        "a",
        "id"
      ],
      [
        "Ġfriend",
        "s"
      ],
      [
        "ĠTh",
        "is"
      ],
      [
        "Ġf",
        "ell"
      ],
      [
        "t",
        "s"
      ],
      [
        "CH",
        "ARD"
      ],
      [
        "C",
        "ome"
      ],
      [
        "Y",
        "our"
      ],
      [
        "Ġp",
        "ut"
      ],
      [
        "H",
        "AM"
      ],
      [
        "g",
        "ed"
      ],
      [
        "o",
        "nd"
      ],
      [
        "u",
        "ck"
      ],
      [
        "in",
        "s"
      ],
      [
        "Ġcon",
        "f"
      ],
      [
        "v",
        "il"
      ],
      [
        "Ġth",
        "ose"
      ],
      [
        "Ġey",
        "e"
      ],
      [
        "Ġt",
        "ong"
      ],
      [
        "c",
        "y"
      ],
      [
        "i",
        "an"
      ],
      [
        "Ġl",
        "ittle"
      ],
      [
        "LE",
        "T"
      ],
      [
        "l",
        "ed"
      ],
      [
        "Ġg",
        "l"
      ],
      [
        "ra",
        "ce"
      ],
      [
        "M",
        "AN"
      ],
      [
        "Ġs",
        "et"
      ],
      [
        "Ġh",
        "our"
      ],
      [
        "ar",
        "ry"
      ],
      [
        "K",
        "E"
      ],
      [
        "Ġli",
        "e"
      ],
      [
        "S",
        "S"
      ],
      [
        "ĠC",
        "a"
      ],
      [
        "Ġd",
        "ie"
      ],
      [
        "r",
        "ant"
      ],
      [
        "on",
        "s"
      ],
      [
        "M",
        "A"
      ],
      [
        "R",
        "Y"
      ],
      [
        "Ġde",
        "ar"
      ],
      [
        "c",
        "es"
      ],
      [
        "o",
        "ve"
      ],
      [
        "Ġw",
        "ife"
      ],
      [
        "o",
        "f"
      ],
      [
        "m",
        "en"
      ],
      [
        "Ġf",
        "irst"
      ],
      [
        "Ġc",
        "hi"
      ],
      [
        "ed",
        "s"
      ],
      [
        "Ġho",
        "ld"
      ],
      [
        "STA",
        "FF"
      ],
      [
        "ut",
        "y"
      ],
      [
        "ĠĠ",
        "ĠĠ"
      ],
      [
        "E",
        "EN"
      ],
      [
        "i",
        "a"
      ],
      [
        "Ġn",
        "at"
      ],
      [
        "ut",
        "h"
      ],
      [
        "T",
        "han"
      ],
      [
        "i",
        "le"
      ],
      [
        "re",
        "n"
      ],
      [
        "al",
        "k"
      ],
      [
        "F",
        "AL"
      ],
      [
        "it",
        "s"
      ],
      [
        "FAL",
        "STAFF"
      ],
      [
        "H",
        "is"
      ],
      [
        "r",
        "ance"
      ],
      [
        "Ġfa",
        "ce"
      ],
      [
        "Ġ",
        "To"
      ],
      [
        "at",
        "ch"
      ],
      [
        "l",
        "f"
      ],
      [
        "QU",
        "EEN"
      ],
      [
        "ĠW",
        "e"
      ],
      [
        "ou",
        "d"
      ],
      [
        "Ġg",
        "ri"
      ],
      [
        "l",
        "t"
      ],
      [
        "in",
        "ess"
      ],
      [
        "Ġ",
        "That"
      ],
      [
        "Ġf",
        "e"
      ],
      [
        "Ġyou",
        "ng"
      ],
      [
        "Ġm",
        "ind"
      ],
      [
        "l",
        "se"
      ],
      [
        "Ġs",
        "le"
      ],
      [
        "Ġth",
        "ine"
      ],
      [
        "ĠO",
        "F"
      ],
      [
        "c",
        "l"
      ],
      [
        "re",
        "t"
      ],
      [
        "Ġ",
        "V"
      ],
      [
        "ie",
        "ld"
      ],
      [
        "g",
        "et"
      ],
      [
        "ĠF",
        "or"
      ],
      [
        "il",
        "t"
      ],
      [
        "Ġwor",
        "th"
      ],
      [
        "Ġagain",
        "st"
      ],
      [
        "a",
        "il"
      ],
      [
        "Ġt",
        "ri"
      ],
      [
        "ow",
        "s"
      ],
      [
        "Ġre",
        "st"
      ],
      [
        "Ġcon",
        "s"
      ],
      [
        "r",
        "ing"
      ],
      [
        "Ġu",
        "nder"
      ],
      [
        "ist",
        "ress"
      ],
      [
        "T",
        "ER"
      ],
      [
        "c",
        "hed"
      ],
      [
        "Ġg",
        "u"
      ],
      [
        "T",
        "US"
      ],
      [
        "Ġf",
        "ull"
      ],
      [
        "ĠE",
        "ng"
      ],
      [
        "Ġk",
        "ind"
      ],
      [
        "Ġan",
        "sw"
      ],
      [
        "Ġfa",
        "ll"
      ],
      [
        "es",
        "ar"
      ],
      [
        "en",
        "s"
      ],
      [
        "Ġst",
        "ay"
      ],
      [
        "ĠD",
        "uke"
      ],
      [
        "IC",
        "K"
      ],
      [
        "The",
        "n"
      ],
      [
        "Ġser",
        "v"
      ],
      [
        "est",
        "y"
      ],
      [
        "RO",
        "S"
      ],
      [
        "a",
        "le"
      ],
      [
        "B",
        "A"
      ],
      [
        "Ġhim",
        "self"
      ],
      [
        "ir",
        "t"
      ],
      [
        "Ġfo",
        "llow"
      ],
      [
        "U",
        "L"
      ],
      [
        "Ġt",
        "ill"
      ],
      [
        "Ġc",
        "he"
      ],
      [
        "ĠTh",
        "ou"
      ],
      [
        "Ġc",
        "ou"
      ],
      [
        "Ġn",
        "one"
      ],
      [
        "Ġre",
        "s"
      ],
      [
        "Ġt",
        "re"
      ],
      [
        "in",
        "t"
      ],
      [
        "Ġm",
        "other"
      ],
      [
        "Ġg",
        "i"
      ],
      [
        "Ġg",
        "one"
      ],
      [
        "Ġh",
        "ouse"
      ],
      [
        "m",
        "p"
      ],
      [
        "Ġfor",
        "t"
      ],
      [
        "e",
        "ct"
      ],
      [
        "ha",
        "r"
      ],
      [
        "Ġd",
        "aughter"
      ],
      [
        "is",
        "on"
      ],
      [
        "Ġpl",
        "ace"
      ],
      [
        "Ġpres",
        "ent"
      ],
      [
        "Ġwho",
        "se"
      ],
      [
        "Ġtong",
        "ue"
      ],
      [
        "Ġbo",
        "y"
      ],
      [
        "PRIN",
        "CE"
      ],
      [
        "Ġse",
        "em"
      ],
      [
        "Ġt",
        "urn"
      ],
      [
        "Ġp",
        "ass"
      ],
      [
        "f",
        "t"
      ],
      [
        "Ġe",
        "lse"
      ],
      [
        "as",
        "ure"
      ],
      [
        "Ġword",
        "s"
      ],
      [
        "RI",
        "CHARD"
      ],
      [
        ",",
        "\""
      ],
      [
        "I",
        "D"
      ],
      [
        "R",
        "ESS"
      ],
      [
        "Ġt",
        "ra"
      ],
      [
        "G",
        "O"
      ],
      [
        "ĠA",
        "y"
      ],
      [
        "p",
        "on"
      ],
      [
        "Ġc",
        "h"
      ],
      [
        "Ġbr",
        "ing"
      ],
      [
        "S",
        "t"
      ],
      [
        "Ġp",
        "eace"
      ],
      [
        "Ġfor",
        "th"
      ],
      [
        "Ġri",
        "ght"
      ],
      [
        "Ġwom",
        "an"
      ],
      [
        "O",
        "ST"
      ],
      [
        "is",
        "hed"
      ],
      [
        "B",
        "O"
      ],
      [
        "y",
        "ou"
      ],
      [
        "Ġcha",
        "r"
      ],
      [
        "it",
        "ion"
      ],
      [
        "o",
        "ld"
      ],
      [
        "Ġsa",
        "id"
      ],
      [
        "Ġc",
        "ur"
      ],
      [
        "Ġw",
        "o"
      ],
      [
        "Ġsw",
        "ord"
      ],
      [
        "ĠR",
        "ome"
      ],
      [
        "b",
        "t"
      ],
      [
        "ill",
        "ain"
      ],
      [
        "ĠW",
        "ell"
      ],
      [
        "ANT",
        "ON"
      ],
      [
        "en",
        "se"
      ],
      [
        "H",
        "ere"
      ],
      [
        "or",
        "y"
      ],
      [
        "Ġchi",
        "ld"
      ],
      [
        "s",
        "and"
      ],
      [
        "Ġh",
        "us"
      ],
      [
        "Ġthou",
        "gh"
      ],
      [
        "A",
        "G"
      ],
      [
        "b",
        "and"
      ],
      [
        "hi",
        "le"
      ],
      [
        "Ġc",
        "han"
      ],
      [
        "Ġli",
        "ght"
      ],
      [
        "Ġwr",
        "ong"
      ],
      [
        "M",
        "AR"
      ],
      [
        "ĠS",
        "o"
      ],
      [
        "Ġpl",
        "ay"
      ],
      [
        "Ġim",
        "p"
      ],
      [
        "Ġc",
        "ount"
      ],
      [
        "ĠH",
        "ere"
      ],
      [
        "Ġp",
        "e"
      ],
      [
        "ĠD",
        "o"
      ],
      [
        "Ġu",
        "nto"
      ],
      [
        "Ġaf",
        "ter"
      ],
      [
        "Ġsp",
        "ir"
      ],
      [
        "a",
        "ir"
      ],
      [
        "m",
        "ed"
      ],
      [
        "Ġcour",
        "t"
      ],
      [
        "L",
        "ES"
      ],
      [
        "n",
        "ed"
      ],
      [
        "x",
        "t"
      ],
      [
        "at",
        "i"
      ],
      [
        "ee",
        "ch"
      ],
      [
        "I",
        "ST"
      ],
      [
        "Ġf",
        "al"
      ],
      [
        "ĠI",
        "s"
      ],
      [
        "Ġon",
        "ce"
      ],
      [
        "Ġho",
        "pe"
      ],
      [
        "Ġme",
        "an"
      ],
      [
        "Ġb",
        "ack"
      ],
      [
        "ĠN",
        "ow"
      ],
      [
        "S",
        "he"
      ],
      [
        "or",
        "se"
      ],
      [
        "Ġfa",
        "ith"
      ],
      [
        "Ġa",
        "cc"
      ],
      [
        "Ġth",
        "r"
      ],
      [
        "Ġp",
        "ower"
      ],
      [
        "Ġb",
        "id"
      ],
      [
        "ar",
        "y"
      ],
      [
        "L",
        "UC"
      ],
      [
        "S",
        "hall"
      ],
      [
        "ĠCa",
        "esar"
      ],
      [
        "Ġk",
        "ill"
      ],
      [
        "Ġre",
        "ason"
      ],
      [
        "Ġd",
        "re"
      ],
      [
        "Ġm",
        "atter"
      ],
      [
        "Ġp",
        "ra"
      ],
      [
        "t",
        "w"
      ],
      [
        "a",
        "b"
      ],
      [
        "Ġc",
        "rown"
      ],
      [
        "ri",
        "ed"
      ],
      [
        "e",
        "al"
      ],
      [
        "Ġd",
        "ra"
      ],
      [
        "DU",
        "KE"
      ],
      [
        "S",
        "H"
      ],
      [
        "im",
        "es"
      ],
      [
        "sel",
        "ves"
      ],
      [
        "v",
        "y"
      ],
      [
        "ĠH",
        "EN"
      ],
      [
        "ĠHEN",
        "RY"
      ],
      [
        "H",
        "ave"
      ],
      [
        "is",
        "ter"
      ],
      [
        "Ġha",
        "s"
      ],
      [
        "Ġhus",
        "band"
      ],
      [
        "Ġh",
        "um"
      ],
      [
        "Ġansw",
        "er"
      ],
      [
        "The",
        "y"
      ],
      [
        "Ġin",
        "de"
      ],
      [
        "HAM",
        "LET"
      ],
      [
        "c",
        "om"
      ],
      [
        "Ġd",
        "ou"
      ],
      [
        "Ġme",
        "et"
      ],
      [
        "D",
        "O"
      ],
      [
        "Ġre",
        "t"
      ],
      [
        "Ġwh",
        "om"
      ],
      [
        "Ġthou",
        "sand"
      ],
      [
        "Ġas",
        "s"
      ],
      [
        "on",
        "t"
      ],
      [
        "M",
        "ON"
      ],
      [
        "Ġsha",
        "me"
      ],
      [
        "Ġgo",
        "ds"
      ],
      [
        "fe",
        "ct"
      ],
      [
        "pe",
        "ct"
      ],
      [
        "U",
        "N"
      ],
      [
        "Ġ",
        "i"
      ],
      [
        "Ġc",
        "ause"
      ],
      [
        "Ġdo",
        "st"
      ],
      [
        "Ġan",
        "other"
      ],
      [
        "ĠA",
        "n"
      ],
      [
        "Ġfal",
        "se"
      ],
      [
        "Ġe",
        "ven"
      ],
      [
        "Ġinde",
        "ed"
      ],
      [
        "Ġhe",
        "l"
      ],
      [
        "Ġbe",
        "a"
      ],
      [
        "U",
        "pon"
      ],
      [
        "om",
        "et"
      ],
      [
        "Ġh",
        "ome"
      ],
      [
        "ur",
        "d"
      ],
      [
        "Th",
        "y"
      ],
      [
        "RO",
        "M"
      ],
      [
        "Ġb",
        "es"
      ],
      [
        "Ġth",
        "ing"
      ],
      [
        "Ġg",
        "r"
      ],
      [
        "ĠF",
        "rance"
      ],
      [
        "is",
        "ed"
      ],
      [
        "Ġhe",
        "ard"
      ],
      [
        "TH",
        "ER"
      ],
      [
        "Ġj",
        "ust"
      ],
      [
        "ert",
        "ain"
      ],
      [
        "W",
        "ill"
      ],
      [
        "Ġb",
        "od"
      ],
      [
        "Ġv",
        "irt"
      ],
      [
        "Ġab",
        "out"
      ],
      [
        "Ġv",
        "illain"
      ],
      [
        "Ġhand",
        "s"
      ],
      [
        "Ġple",
        "ase"
      ],
      [
        "b",
        "s"
      ],
      [
        "Ġo",
        "ver"
      ],
      [
        "ĠG",
        "o"
      ],
      [
        "Ġlord",
        "s"
      ],
      [
        "Ġtr",
        "uth"
      ],
      [
        "ut",
        "e"
      ],
      [
        "Ġw",
        "ind"
      ],
      [
        "Ġm",
        "is"
      ],
      [
        "ard",
        "on"
      ],
      [
        "Ġdis",
        "c"
      ],
      [
        "ĠB",
        "y"
      ],
      [
        "Ġm",
        "akes"
      ],
      [
        "Ġhe",
        "nce"
      ],
      [
        "Ġsle",
        "ep"
      ],
      [
        "C",
        "US"
      ],
      [
        "Ġm",
        "on"
      ],
      [
        "Ġm",
        "aid"
      ],
      [
        "Ġb",
        "ed"
      ],
      [
        "Ġu",
        "se"
      ],
      [
        "ĠN",
        "ay"
      ],
      [
        "Ġthan",
        "k"
      ],
      [
        "Ġla",
        "w"
      ],
      [
        "D",
        "o"
      ],
      [
        "O",
        "ur"
      ],
      [
        "ĠW",
        "here"
      ],
      [
        "Ġat",
        "t"
      ],
      [
        "F",
        "rom"
      ],
      [
        "f",
        "ort"
      ],
      [
        "I",
        "T"
      ],
      [
        "Y",
        "et"
      ],
      [
        "ous",
        "in"
      ],
      [
        "Ġmad",
        "am"
      ],
      [
        "ci",
        "ous"
      ],
      [
        "Ġnat",
        "ure"
      ],
      [
        "m",
        "s"
      ],
      [
        "ad",
        "e"
      ],
      [
        "Ġsu",
        "re"
      ],
      [
        "N",
        "or"
      ],
      [
        "n",
        "ing"
      ],
      [
        "an",
        "y"
      ],
      [
        "EL",
        "LO"
      ],
      [
        "Ġgo",
        "ld"
      ],
      [
        "Ġf",
        "ar"
      ],
      [
        "N",
        "ot"
      ],
      [
        "Ġd",
        "i"
      ],
      [
        "ĠB",
        "e"
      ],
      [
        "Ġ",
        "ill"
      ],
      [
        "ve",
        "re"
      ],
      [
        "ĠThe",
        "n"
      ],
      [
        "ĠA",
        "nt"
      ],
      [
        "Ġbe",
        "l"
      ],
      [
        "Ġso",
        "ld"
      ],
      [
        "Ġbre",
        "ak"
      ],
      [
        "Ġc",
        "ame"
      ],
      [
        "Ġst",
        "ate"
      ],
      [
        "o",
        "ck"
      ],
      [
        "Ġlet",
        "ter"
      ],
      [
        "!",
        "--"
      ],
      [
        "Ġth",
        "ings"
      ],
      [
        "Ġe",
        "re"
      ],
      [
        "ĠS",
        "he"
      ],
      [
        "ES",
        "TER"
      ],
      [
        "Ġv",
        "al"
      ],
      [
        "Ġb",
        "u"
      ],
      [
        "Ġb",
        "ri"
      ],
      [
        "Ġha",
        "pp"
      ],
      [
        "c",
        "ed"
      ],
      [
        "y",
        "al"
      ],
      [
        "Ġs",
        "ent"
      ],
      [
        "ĠG",
        "ood"
      ],
      [
        "ur",
        "y"
      ],
      [
        "Ġsu",
        "b"
      ],
      [
        "ĠG",
        "race"
      ],
      [
        "Ġb",
        "us"
      ],
      [
        "an",
        "ge"
      ],
      [
        "on",
        "y"
      ],
      [
        "Ġyou",
        "th"
      ],
      [
        "O",
        "TH"
      ],
      [
        "Ġad",
        "v"
      ],
      [
        "Ġgri",
        "ef"
      ],
      [
        "A",
        "U"
      ],
      [
        "Ġw",
        "ant"
      ],
      [
        "A",
        "y"
      ],
      [
        "Ġh",
        "u"
      ],
      [
        "BE",
        "TH"
      ],
      [
        "i",
        "ld"
      ],
      [
        "Ġst",
        "re"
      ],
      [
        "Ġnew",
        "s"
      ],
      [
        "R",
        "E"
      ],
      [
        "Ġh",
        "ither"
      ],
      [
        "G",
        "AR"
      ],
      [
        "P",
        "ER"
      ],
      [
        "a",
        "j"
      ],
      [
        "Ġt",
        "ears"
      ],
      [
        "Ġf",
        "ire"
      ],
      [
        "Ġl",
        "ast"
      ],
      [
        "Ġsha",
        "lt"
      ],
      [
        "get",
        "her"
      ],
      [
        "O",
        "M"
      ],
      [
        "Ġsu",
        "n"
      ],
      [
        "Ġqu",
        "een"
      ],
      [
        "Ġst",
        "ri"
      ],
      [
        "e",
        "ed"
      ],
      [
        "Ġdo",
        "es"
      ],
      [
        "ul",
        "t"
      ],
      [
        "LE",
        "ON"
      ],
      [
        "Ġen",
        "ough"
      ],
      [
        "ĠW",
        "ho"
      ],
      [
        "Ġcou",
        "n"
      ],
      [
        "O",
        "P"
      ],
      [
        "w",
        "ith"
      ],
      [
        "in",
        "ed"
      ],
      [
        "ie",
        "ve"
      ],
      [
        "Ġb",
        "an"
      ],
      [
        "Ġe",
        "m"
      ],
      [
        "Ġwe",
        "l"
      ],
      [
        "Ġhel",
        "p"
      ],
      [
        "G",
        "o"
      ],
      [
        "n",
        "ow"
      ],
      [
        "et",
        "s"
      ],
      [
        "Ġk",
        "iss"
      ],
      [
        "d",
        "d"
      ],
      [
        "u",
        "ch"
      ],
      [
        "o",
        "h"
      ],
      [
        "Ġs",
        "ince"
      ],
      [
        "Ġin",
        "t"
      ],
      [
        "B",
        "EL"
      ],
      [
        "i",
        "ke"
      ],
      [
        "at",
        "t"
      ],
      [
        "Ġfell",
        "ow"
      ],
      [
        "i",
        "ly"
      ],
      [
        "Ġgra",
        "ce"
      ],
      [
        "Ġhon",
        "est"
      ],
      [
        "G",
        "ood"
      ],
      [
        "Ġc",
        "are"
      ],
      [
        "Ġth",
        "ree"
      ],
      [
        "ver",
        "s"
      ],
      [
        "ho",
        "ld"
      ],
      [
        "Ġr",
        "ather"
      ],
      [
        "j",
        "ect"
      ],
      [
        "Ġm",
        "istress"
      ],
      [
        "Ġse",
        "c"
      ],
      [
        "ĠM",
        "aster"
      ],
      [
        "Ġen",
        "em"
      ],
      [
        "p",
        "h"
      ],
      [
        "p",
        "eak"
      ],
      [
        "Ġha",
        "ng"
      ],
      [
        "Ġstr",
        "ong"
      ],
      [
        "B",
        "RU"
      ],
      [
        "d",
        "ay"
      ],
      [
        "id",
        "es"
      ],
      [
        "Ġse",
        "en"
      ],
      [
        "ĠC",
        "l"
      ],
      [
        "ĠEng",
        "land"
      ],
      [
        "BRU",
        "TUS"
      ],
      [
        "ct",
        "or"
      ],
      [
        "Ġgentle",
        "man"
      ],
      [
        "U",
        "n"
      ],
      [
        "Ġl",
        "and"
      ],
      [
        "Ġde",
        "vil"
      ],
      [
        "Ġsa",
        "w"
      ],
      [
        "oh",
        "n"
      ],
      [
        "u",
        "es"
      ],
      [
        "O",
        "B"
      ],
      [
        "en",
        "er"
      ],
      [
        "p",
        "ose"
      ],
      [
        "Ġin",
        "st"
      ],
      [
        "Ġf",
        "ight"
      ],
      [
        "ion",
        "s"
      ],
      [
        "Ġpr",
        "ince"
      ],
      [
        "Ġj",
        "oy"
      ],
      [
        "aj",
        "esty"
      ],
      [
        "c",
        "hes"
      ],
      [
        "Ġwith",
        "out"
      ],
      [
        "E",
        "US"
      ],
      [
        "Ġh",
        "igh"
      ],
      [
        "Ġbre",
        "ath"
      ],
      [
        "Ġdes",
        "ire"
      ],
      [
        "H",
        "ath"
      ],
      [
        "Ġs",
        "orrow"
      ],
      [
        "Ġl",
        "ay"
      ],
      [
        "Ġwe",
        "ep"
      ],
      [
        "Ġyour",
        "self"
      ],
      [
        "Ġstr",
        "ange"
      ],
      [
        "ang",
        "er"
      ],
      [
        "Ġbod",
        "y"
      ],
      [
        "OTH",
        "ELLO"
      ],
      [
        "A",
        "ll"
      ],
      [
        "IA",
        "GO"
      ],
      [
        "ROS",
        "AL"
      ],
      [
        "at",
        "es"
      ],
      [
        "I",
        "OL"
      ],
      [
        "p",
        "l"
      ],
      [
        "Ġc",
        "a"
      ],
      [
        "Ġc",
        "ousin"
      ],
      [
        "Ġp",
        "ers"
      ],
      [
        "Ġp",
        "ati"
      ],
      [
        "t",
        "hat"
      ],
      [
        "ent",
        "s"
      ],
      [
        "Ġlo",
        "st"
      ],
      [
        "Ġthr",
        "ough"
      ],
      [
        "Ġs",
        "omet"
      ],
      [
        "Ġme",
        "ans"
      ],
      [
        "Ġs",
        "ea"
      ],
      [
        "or",
        "k"
      ],
      [
        "Ġse",
        "nd"
      ],
      [
        "Ġthere",
        "fore"
      ],
      [
        "Ġrem",
        "em"
      ],
      [
        "F",
        "O"
      ],
      [
        "Ġo",
        "p"
      ],
      [
        "Ġof",
        "t"
      ],
      [
        "Ġsp",
        "o"
      ],
      [
        "ef",
        "t"
      ],
      [
        "Ġarm",
        "s"
      ],
      [
        "Ġwel",
        "come"
      ],
      [
        "Ġg",
        "row"
      ],
      [
        "Ġbl",
        "ess"
      ],
      [
        "Ġcomm",
        "and"
      ],
      [
        "a",
        "w"
      ],
      [
        "n",
        "er"
      ],
      [
        "ce",
        "ive"
      ],
      [
        "Ġspir",
        "it"
      ],
      [
        "l",
        "et"
      ],
      [
        "CA",
        "SS"
      ],
      [
        "IST",
        "RESS"
      ],
      [
        "Ġbea",
        "uty"
      ],
      [
        "M",
        "ISTRESS"
      ],
      [
        "b",
        "ed"
      ],
      [
        "Ġl",
        "ess"
      ],
      [
        "w",
        "een"
      ],
      [
        "Ġg",
        "re"
      ],
      [
        "ĠB",
        "r"
      ],
      [
        "Ġhar",
        "d"
      ],
      [
        "Ġret",
        "urn"
      ],
      [
        "k",
        "en"
      ],
      [
        "Ġit",
        "self"
      ],
      [
        "li",
        "ke"
      ],
      [
        "A",
        "n"
      ],
      [
        "Ġf",
        "oul"
      ],
      [
        "el",
        "s"
      ],
      [
        "Ġg",
        "et"
      ],
      [
        "at",
        "s"
      ],
      [
        "ain",
        "s"
      ],
      [
        "Ġun",
        "c"
      ],
      [
        "A",
        "re"
      ],
      [
        "D",
        "EM"
      ],
      [
        "u",
        "se"
      ],
      [
        "Ġne",
        "ed"
      ],
      [
        "ound",
        "s"
      ],
      [
        "gain",
        "st"
      ],
      [
        "ĠJ",
        "ohn"
      ],
      [
        "ENT",
        "LE"
      ],
      [
        "ANTON",
        "Y"
      ],
      [
        "Ġf",
        "ore"
      ],
      [
        "Ġl",
        "eft"
      ],
      [
        "Ġon",
        "ly"
      ],
      [
        "Ġde",
        "l"
      ],
      [
        "ĠS",
        "t"
      ],
      [
        "Ġsw",
        "ear"
      ],
      [
        "g",
        "er"
      ],
      [
        "Ġf",
        "ree"
      ],
      [
        "D",
        "Y"
      ],
      [
        "ou",
        "ch"
      ],
      [
        "Ġw",
        "hy"
      ],
      [
        "ĠI",
        "n"
      ],
      [
        "Ġst",
        "ra"
      ],
      [
        "one",
        "y"
      ],
      [
        "LO",
        "UC"
      ],
      [
        "LOUC",
        "ESTER"
      ],
      [
        "N",
        "E"
      ],
      [
        "u",
        "ff"
      ],
      [
        "ro",
        "ss"
      ],
      [
        "Ġru",
        "n"
      ],
      [
        "d",
        "om"
      ],
      [
        "Ġs",
        "ick"
      ],
      [
        "ve",
        "l"
      ],
      [
        "Ġli",
        "es"
      ],
      [
        "Ġthought",
        "s"
      ],
      [
        "Ġt",
        "em"
      ],
      [
        "Ġh",
        "orse"
      ],
      [
        "Ġpro",
        "ve"
      ],
      [
        "m",
        "ost"
      ],
      [
        "r",
        "ay"
      ],
      [
        "Ġa",
        "w"
      ],
      [
        "Ġs",
        "ight"
      ],
      [
        "it",
        "he"
      ],
      [
        "Ġto",
        "gether"
      ],
      [
        "Ġyour",
        "s"
      ],
      [
        "s",
        "o"
      ],
      [
        "ore",
        "d"
      ],
      [
        "z",
        "e"
      ],
      [
        "Ġt",
        "alk"
      ],
      [
        "Ġp",
        "ity"
      ],
      [
        "ot",
        "t"
      ],
      [
        "Ġv",
        "i"
      ],
      [
        "l",
        "as"
      ],
      [
        "Ġp",
        "rom"
      ],
      [
        "ce",
        "i"
      ],
      [
        "AN",
        "IO"
      ],
      [
        "pp",
        "ed"
      ],
      [
        "Ġfort",
        "une"
      ],
      [
        "C",
        "OR"
      ],
      [
        "n",
        "o"
      ],
      [
        "Ġp",
        "ardon"
      ],
      [
        "Ġto",
        "ld"
      ],
      [
        "Ġpr",
        "oud"
      ],
      [
        "T",
        "w"
      ],
      [
        "Ġw",
        "ish"
      ],
      [
        "Ġd",
        "en"
      ],
      [
        "G",
        "LOUCESTER"
      ],
      [
        "m",
        "er"
      ],
      [
        "Ġwith",
        "in"
      ],
      [
        "Ġsay",
        "s"
      ],
      [
        "ĠY",
        "our"
      ],
      [
        "Who",
        "se"
      ],
      [
        "r",
        "ink"
      ],
      [
        "u",
        "c"
      ],
      [
        "Ġs",
        "ing"
      ],
      [
        "Ġb",
        "orn"
      ],
      [
        "Ġbus",
        "iness"
      ],
      [
        "ENTLE",
        "MAN"
      ],
      [
        "I",
        "M"
      ],
      [
        "U",
        "M"
      ],
      [
        "Ġro",
        "yal"
      ],
      [
        "P",
        "E"
      ],
      [
        "ĠE",
        "ar"
      ],
      [
        "e",
        "ver"
      ],
      [
        "Ġf",
        "ly"
      ],
      [
        "Ġsu",
        "ff"
      ],
      [
        "Ġdis",
        "p"
      ],
      [
        "Ġcount",
        "ry"
      ],
      [
        "u",
        "res"
      ],
      [
        "Ġw",
        "ilt"
      ],
      [
        "Ġha",
        "lf"
      ],
      [
        "Ġde",
        "f"
      ],
      [
        "Ġj",
        "ud"
      ],
      [
        "ou",
        "th"
      ],
      [
        "Ġs",
        "ad"
      ],
      [
        "Ġl",
        "ate"
      ],
      [
        "Ġg",
        "ave"
      ],
      [
        "ĠW",
        "hen"
      ],
      [
        "Ġv",
        "o"
      ],
      [
        "Ġsee",
        "k"
      ],
      [
        "G",
        "ER"
      ],
      [
        "H",
        "er"
      ],
      [
        "h",
        "ould"
      ],
      [
        "J",
        "UL"
      ],
      [
        "Ġc",
        "ry"
      ],
      [
        "Ġcom",
        "fort"
      ],
      [
        "ĠThe",
        "y"
      ],
      [
        "Ġear",
        "th"
      ],
      [
        "Y",
        "OR"
      ],
      [
        "Ġw",
        "at"
      ],
      [
        "Ġdis",
        "t"
      ],
      [
        "Ġf",
        "ound"
      ],
      [
        "FO",
        "OL"
      ],
      [
        "o",
        "ple"
      ],
      [
        "Ġre",
        "ven"
      ],
      [
        "Ġex",
        "ce"
      ],
      [
        "ithe",
        "e"
      ],
      [
        "D",
        "ER"
      ],
      [
        "E",
        "ven"
      ],
      [
        "s",
        "hip"
      ],
      [
        "ĠH",
        "er"
      ],
      [
        "Ġal",
        "one"
      ],
      [
        "c",
        "han"
      ],
      [
        "Ġ",
        "Q"
      ],
      [
        "er",
        "n"
      ],
      [
        "it",
        "or"
      ],
      [
        "Ġsu",
        "pp"
      ],
      [
        "L",
        "AND"
      ],
      [
        "Ġn",
        "ear"
      ],
      [
        "Ġto",
        "m"
      ],
      [
        "Ġin",
        "f"
      ],
      [
        "ĠA",
        "s"
      ],
      [
        "Ġlook",
        "s"
      ],
      [
        "Ġwor",
        "k"
      ],
      [
        "O",
        "n"
      ],
      [
        "g",
        "s"
      ],
      [
        "r",
        "an"
      ],
      [
        "Ġd",
        "are"
      ],
      [
        "P",
        "RO"
      ],
      [
        "Ġs",
        "in"
      ],
      [
        "Ġc",
        "ra"
      ],
      [
        "D",
        "IO"
      ],
      [
        "Ġhat",
        "e"
      ],
      [
        "T",
        "ill"
      ],
      [
        "V",
        "OL"
      ],
      [
        "l",
        "ing"
      ],
      [
        "Ġs",
        "ister"
      ],
      [
        "Ġm",
        "et"
      ],
      [
        "Ġm",
        "urd"
      ],
      [
        "OR",
        "T"
      ],
      [
        "are",
        "well"
      ],
      [
        "Ġco",
        "ld"
      ],
      [
        "O",
        "W"
      ],
      [
        "v",
        "or"
      ],
      [
        "Ġs",
        "il"
      ],
      [
        "Ġo",
        "ath"
      ],
      [
        "Ġblood",
        "y"
      ],
      [
        "Ġdou",
        "bt"
      ],
      [
        "M",
        "EN"
      ],
      [
        "i",
        "x"
      ],
      [
        "u",
        "b"
      ],
      [
        "Ġa",
        "ir"
      ],
      [
        "Ġs",
        "k"
      ],
      [
        "ĠE",
        "d"
      ],
      [
        "Ġqu",
        "ick"
      ],
      [
        "G",
        "H"
      ],
      [
        "T",
        "R"
      ],
      [
        "b",
        "y"
      ],
      [
        "k",
        "ed"
      ],
      [
        "u",
        "p"
      ],
      [
        "Ġt",
        "end"
      ],
      [
        "Ġw",
        "in"
      ],
      [
        "Ġb",
        "ir"
      ],
      [
        "if",
        "f"
      ],
      [
        "om",
        "an"
      ],
      [
        "Ġserv",
        "ice"
      ],
      [
        "Ġs",
        "ame"
      ],
      [
        "Ġre",
        "ad"
      ],
      [
        "Ġthy",
        "self"
      ],
      [
        "OL",
        "I"
      ],
      [
        "Ġpr",
        "ison"
      ],
      [
        "AG",
        "E"
      ],
      [
        "W",
        "ell"
      ],
      [
        "o",
        "p"
      ],
      [
        "Ġt",
        "imes"
      ],
      [
        "Ġde",
        "p"
      ],
      [
        "Ġex",
        "p"
      ],
      [
        "D",
        "id"
      ],
      [
        "a",
        "v"
      ],
      [
        "m",
        "y"
      ],
      [
        "en",
        "ry"
      ],
      [
        "ĠM",
        "ar"
      ],
      [
        "ure",
        "d"
      ],
      [
        "ment",
        "s"
      ],
      [
        "Ġdra",
        "w"
      ],
      [
        "ener",
        "al"
      ],
      [
        "L",
        "I"
      ],
      [
        "Ġb",
        "ro"
      ],
      [
        "ĠW",
        "ill"
      ],
      [
        "Ġlo",
        "se"
      ],
      [
        "Ġfo",
        "ot"
      ],
      [
        "C",
        "LE"
      ],
      [
        "M",
        "ore"
      ],
      [
        "N",
        "ay"
      ],
      [
        "v",
        "ent"
      ],
      [
        "al",
        "th"
      ],
      [
        "Ġso",
        "on"
      ],
      [
        "Ġlo",
        "ves"
      ],
      [
        "Ġday",
        "s"
      ],
      [
        "Ġpur",
        "pose"
      ],
      [
        "Ġpe",
        "ople"
      ],
      [
        "G",
        "ive"
      ],
      [
        "S",
        "ir"
      ],
      [
        "W",
        "ould"
      ],
      [
        "i",
        "et"
      ],
      [
        "Ġwe",
        "ar"
      ],
      [
        "A",
        "t"
      ],
      [
        "a",
        "im"
      ],
      [
        "Ġf",
        "ur"
      ],
      [
        "Ġl",
        "ear"
      ],
      [
        "oo",
        "se"
      ],
      [
        "TI",
        "MON"
      ],
      [
        "har",
        "d"
      ],
      [
        "Ġe",
        "ach"
      ],
      [
        "ĠT",
        "ro"
      ],
      [
        "ĠY",
        "ork"
      ],
      [
        "MA",
        "C"
      ],
      [
        "c",
        "ess"
      ],
      [
        "c",
        "ause"
      ],
      [
        "er",
        "y"
      ],
      [
        "ĠH",
        "is"
      ],
      [
        "ĠN",
        "ot"
      ],
      [
        "T",
        "OR"
      ],
      [
        "ĠA",
        "r"
      ],
      [
        "UN",
        "T"
      ],
      [
        "S",
        "ome"
      ],
      [
        "W",
        "as"
      ],
      [
        "Ġli",
        "ves"
      ],
      [
        "th",
        "ing"
      ],
      [
        "IN",
        "D"
      ],
      [
        "Ġfa",
        "re"
      ],
      [
        "Ġbes",
        "eech"
      ],
      [
        "J",
        "A"
      ],
      [
        "Ġs",
        "ound"
      ],
      [
        "Ġc",
        "ho"
      ],
      [
        "us",
        "ic"
      ],
      [
        "ER",
        "V"
      ],
      [
        "D",
        "ES"
      ],
      [
        "Ġa",
        "ge"
      ],
      [
        "Ġm",
        "in"
      ],
      [
        "Ġd",
        "anger"
      ],
      [
        "est",
        "er"
      ],
      [
        "Th",
        "ough"
      ],
      [
        "AT",
        "RA"
      ],
      [
        "Ġcall",
        "ed"
      ],
      [
        "OP",
        "ATRA"
      ],
      [
        "YOR",
        "K"
      ],
      [
        "CLE",
        "OPATRA"
      ],
      [
        "o",
        "or"
      ],
      [
        "IN",
        "IUS"
      ],
      [
        "EL",
        "L"
      ],
      [
        "Ġco",
        "nd"
      ],
      [
        "Ġle",
        "ad"
      ],
      [
        "ren",
        "ch"
      ],
      [
        "H",
        "EL"
      ],
      [
        "Y",
        "RA"
      ],
      [
        "Ġd",
        "am"
      ],
      [
        "Ġd",
        "ru"
      ],
      [
        "ĠS",
        "YRA"
      ],
      [
        "ĠN",
        "or"
      ],
      [
        "Ġknow",
        "s"
      ],
      [
        "Ġple",
        "as"
      ],
      [
        "CUS",
        "E"
      ],
      [
        "ĠSYRA",
        "CUSE"
      ],
      [
        "Ġt",
        "er"
      ],
      [
        "Ġa",
        "ff"
      ],
      [
        "re",
        "w"
      ],
      [
        "re",
        "st"
      ],
      [
        "Ġde",
        "ep"
      ],
      [
        "ROSAL",
        "IND"
      ],
      [
        "B",
        "EN"
      ],
      [
        "b",
        "or"
      ],
      [
        "Ġy",
        "ield"
      ],
      [
        "Ġworth",
        "y"
      ],
      [
        "Ġdre",
        "am"
      ],
      [
        "T",
        "ES"
      ],
      [
        "l",
        "ish"
      ],
      [
        "fe",
        "ction"
      ],
      [
        "A",
        "THER"
      ],
      [
        "Ġw",
        "a"
      ],
      [
        "Ġc",
        "ar"
      ],
      [
        "ĠH",
        "igh"
      ],
      [
        "CH",
        "IO"
      ],
      [
        "ANT",
        "I"
      ],
      [
        "Ġcont",
        "ent"
      ],
      [
        "Ġchar",
        "ge"
      ],
      [
        "?",
        "--"
      ],
      [
        "i",
        "or"
      ],
      [
        "Ġlo",
        "ved"
      ],
      [
        "OL",
        "K"
      ],
      [
        "EL",
        "IA"
      ],
      [
        "IL",
        "IA"
      ],
      [
        "L",
        "ike"
      ],
      [
        "P",
        "AR"
      ],
      [
        "Ġf",
        "ield"
      ],
      [
        "if",
        "t"
      ],
      [
        "ic",
        "es"
      ],
      [
        "Ġtru",
        "st"
      ],
      [
        "Ġhapp",
        "y"
      ],
      [
        "b",
        "ut"
      ],
      [
        "BA",
        "ST"
      ],
      [
        "GAR",
        "ET"
      ],
      [
        "IM",
        "O"
      ],
      [
        "i",
        "ble"
      ],
      [
        "Ġf",
        "it"
      ],
      [
        "ow",
        "ard"
      ],
      [
        "ent",
        "y"
      ],
      [
        "ĠM",
        "ajesty"
      ],
      [
        "Ġcomp",
        "any"
      ],
      [
        "ATHER",
        "INE"
      ],
      [
        "Ġw",
        "ise"
      ],
      [
        "ad",
        "am"
      ],
      [
        "Ġgra",
        "ve"
      ],
      [
        "LA",
        "DY"
      ],
      [
        "Ġcomm",
        "on"
      ],
      [
        "y",
        "our"
      ],
      [
        "Ġb",
        "ound"
      ],
      [
        "est",
        "ion"
      ],
      [
        "EN",
        "GER"
      ],
      [
        "end",
        "s"
      ],
      [
        "ESS",
        "ENGER"
      ],
      [
        "ĠAnt",
        "ony"
      ],
      [
        "P",
        "ET"
      ],
      [
        "s",
        "ed"
      ],
      [
        "ha",
        "l"
      ],
      [
        "Ġf",
        "ea"
      ],
      [
        "Ġsu",
        "m"
      ],
      [
        "ĠA",
        "t"
      ],
      [
        "ĠC",
        "ass"
      ],
      [
        "ie",
        "f"
      ],
      [
        "ak",
        "ing"
      ],
      [
        "TH",
        "IR"
      ],
      [
        "Ġho",
        "ly"
      ],
      [
        "THIR",
        "D"
      ],
      [
        "V",
        "IA"
      ],
      [
        "i",
        "al"
      ],
      [
        "Ġs",
        "it"
      ],
      [
        "on",
        "ight"
      ],
      [
        "Ġp",
        "ast"
      ],
      [
        "Ġre",
        "c"
      ],
      [
        "w",
        "ick"
      ],
      [
        "Ġb",
        "ar"
      ],
      [
        "ĠH",
        "enry"
      ],
      [
        "AN",
        "US"
      ],
      [
        "Ġkn",
        "ight"
      ],
      [
        "Ġbr",
        "ought"
      ],
      [
        "Ġgra",
        "cious"
      ],
      [
        "Ġfur",
        "ther"
      ],
      [
        "Ġs",
        "ur"
      ],
      [
        "Ġfor",
        "g"
      ],
      [
        "Ġvirt",
        "ue"
      ],
      [
        "Ġy",
        "ears"
      ],
      [
        "LE",
        "AR"
      ],
      [
        "Ġple",
        "asure"
      ],
      [
        "Ġgi",
        "ven"
      ],
      [
        "Ġwo",
        "e"
      ],
      [
        "P",
        "AND"
      ],
      [
        "T",
        "A"
      ],
      [
        "Ġa",
        "ct"
      ],
      [
        "Ġd",
        "rink"
      ],
      [
        "Ġp",
        "ay"
      ],
      [
        "Ġhe",
        "ll"
      ],
      [
        "ri",
        "es"
      ],
      [
        "ĠL",
        "ORD"
      ],
      [
        "un",
        "es"
      ],
      [
        "Ġbo",
        "ld"
      ],
      [
        "Ġmar",
        "k"
      ],
      [
        "ĠPr",
        "ince"
      ],
      [
        "BO",
        "Y"
      ],
      [
        "Ġbel",
        "ieve"
      ],
      [
        "v",
        "o"
      ],
      [
        "Ġt",
        "en"
      ],
      [
        "Ġm",
        "usic"
      ],
      [
        "Ġso",
        "vere"
      ],
      [
        "Ġbl",
        "ack"
      ],
      [
        "Ġpo",
        "ss"
      ],
      [
        "ĠHigh",
        "ness"
      ],
      [
        "W",
        "ARD"
      ],
      [
        "g",
        "ue"
      ],
      [
        "l",
        "s"
      ],
      [
        "Ġa",
        "c"
      ],
      [
        "Ġc",
        "or"
      ],
      [
        "Ġknow",
        "n"
      ],
      [
        "L",
        "Y"
      ],
      [
        "W",
        "AR"
      ],
      [
        "Ġl",
        "ad"
      ],
      [
        "en",
        "ed"
      ],
      [
        "Ġst",
        "e"
      ],
      [
        "ĠG",
        "ENTLEMAN"
      ],
      [
        "ĠO",
        "r"
      ],
      [
        "Ġhea",
        "vy"
      ],
      [
        "Ġbet",
        "ween"
      ],
      [
        "Ġwar",
        "rant"
      ],
      [
        "There",
        "fore"
      ],
      [
        "W",
        "ere"
      ],
      [
        "W",
        "ICK"
      ],
      [
        "Ġs",
        "ake"
      ],
      [
        "Ġc",
        "ut"
      ],
      [
        "ĠThere",
        "fore"
      ],
      [
        "Ġbra",
        "ve"
      ],
      [
        "Ġpra",
        "ise"
      ],
      [
        "C",
        "O"
      ],
      [
        "ar",
        "wick"
      ],
      [
        "st",
        "and"
      ],
      [
        "AL",
        "L"
      ],
      [
        "ort",
        "al"
      ],
      [
        "WAR",
        "WICK"
      ],
      [
        "H",
        "N"
      ],
      [
        "O",
        "HN"
      ],
      [
        "st",
        "er"
      ],
      [
        "ce",
        "ed"
      ],
      [
        "ie",
        "ce"
      ],
      [
        "ink",
        "s"
      ],
      [
        "ck",
        "s"
      ],
      [
        "ĠA",
        "ll"
      ],
      [
        "OL",
        "US"
      ],
      [
        "PH",
        "OLUS"
      ],
      [
        "Ġser",
        "ve"
      ],
      [
        "ĠPr",
        "ay"
      ],
      [
        "ANTI",
        "PHOLUS"
      ],
      [
        "i",
        "ant"
      ],
      [
        "AN",
        "CE"
      ],
      [
        "Ġfa",
        "ult"
      ],
      [
        "Ġri",
        "ch"
      ],
      [
        "Ġche",
        "e"
      ],
      [
        "Ġgr",
        "ound"
      ],
      [
        "C",
        "an"
      ],
      [
        "i",
        "ers"
      ],
      [
        "Ġm",
        "orn"
      ],
      [
        "Ġw",
        "hile"
      ],
      [
        "Ġc",
        "ertain"
      ],
      [
        "ue",
        "en"
      ],
      [
        "ĠY",
        "et"
      ],
      [
        "L",
        "ook"
      ],
      [
        "M",
        "ER"
      ],
      [
        "k",
        "es"
      ],
      [
        "Ġin",
        "c"
      ],
      [
        "oo",
        "f"
      ],
      [
        "Ġde",
        "v"
      ],
      [
        "Ġj",
        "o"
      ],
      [
        "Ġmer",
        "cy"
      ],
      [
        "Ġunc",
        "le"
      ],
      [
        "e",
        "c"
      ],
      [
        "ll",
        "y"
      ],
      [
        "Ġre",
        "qu"
      ],
      [
        "ic",
        "hard"
      ],
      [
        "Ġrep",
        "ort"
      ],
      [
        "H",
        "ER"
      ],
      [
        "h",
        "im"
      ],
      [
        "ĠF",
        "rench"
      ],
      [
        "Ġmar",
        "ry"
      ],
      [
        "os",
        "ed"
      ],
      [
        "E",
        "PH"
      ],
      [
        "on",
        "or"
      ],
      [
        "Ġg",
        "eneral"
      ],
      [
        "Ġe",
        "ars"
      ],
      [
        "a",
        "ff"
      ],
      [
        "Ġh",
        "ot"
      ],
      [
        "Ġg",
        "all"
      ],
      [
        "Ġwe",
        "ak"
      ],
      [
        "Ġheart",
        "s"
      ],
      [
        "Ġenem",
        "y"
      ],
      [
        "Ġe",
        "at"
      ],
      [
        "us",
        "h"
      ],
      [
        "Ġpro",
        "f"
      ],
      [
        "Ġdes",
        "er"
      ],
      [
        "cei",
        "ved"
      ],
      [
        "ĠEd",
        "ward"
      ],
      [
        "V",
        "AL"
      ],
      [
        "Ġb",
        "urn"
      ],
      [
        "es",
        "h"
      ],
      [
        "Ġp",
        "ar"
      ],
      [
        "at",
        "ed"
      ],
      [
        "AR",
        "US"
      ],
      [
        "EM",
        "ILIA"
      ],
      [
        "Ġcour",
        "se"
      ],
      [
        "Ġpers",
        "on"
      ],
      [
        "w",
        "e"
      ],
      [
        "Ġt",
        "onight"
      ],
      [
        "Ġw",
        "is"
      ],
      [
        "Ġd",
        "ro"
      ],
      [
        "ow",
        "ers"
      ],
      [
        "ON",
        "A"
      ],
      [
        "ĠQ",
        "ueen"
      ],
      [
        "Ġtom",
        "orrow"
      ],
      [
        "ot",
        "s"
      ],
      [
        "Ġli",
        "ps"
      ],
      [
        "ĠW",
        "arwick"
      ],
      [
        "Ġas",
        "k"
      ],
      [
        "Ġkn",
        "ew"
      ],
      [
        "ast",
        "e"
      ],
      [
        "Ġgo",
        "es"
      ],
      [
        "Ġwom",
        "en"
      ],
      [
        "Ġconf",
        "ess"
      ],
      [
        "Ġsub",
        "ject"
      ],
      [
        "Ġtend",
        "er"
      ],
      [
        "C",
        "TOR"
      ],
      [
        "M",
        "ESSENGER"
      ],
      [
        "b",
        "ly"
      ],
      [
        "r",
        "ous"
      ],
      [
        "ow",
        "ed"
      ],
      [
        "The",
        "se"
      ],
      [
        "Ġsu",
        "it"
      ],
      [
        "Ġpro",
        "p"
      ],
      [
        "s",
        "ue"
      ],
      [
        "w",
        "eet"
      ],
      [
        "Ġs",
        "ign"
      ],
      [
        "Ġs",
        "ide"
      ],
      [
        "Ġv",
        "is"
      ],
      [
        "Ġtoo",
        "k"
      ],
      [
        "Ġdes",
        "p"
      ],
      [
        "Ġcoun",
        "sel"
      ],
      [
        "M",
        "ay"
      ],
      [
        "w",
        "ill"
      ],
      [
        "ck",
        "ed"
      ],
      [
        "Ġex",
        "t"
      ],
      [
        "DEM",
        "ONA"
      ],
      [
        "DES",
        "DEMONA"
      ],
      [
        "HEL",
        "EN"
      ],
      [
        "Ġbe",
        "hold"
      ],
      [
        "ut",
        "us"
      ],
      [
        "th",
        "y"
      ],
      [
        "Ġsh",
        "ort"
      ],
      [
        "Ġpati",
        "ence"
      ],
      [
        "E",
        "O"
      ],
      [
        "G",
        "od"
      ],
      [
        "s",
        "om"
      ],
      [
        "u",
        "ous"
      ],
      [
        "Ġf",
        "our"
      ],
      [
        "Ġc",
        "ol"
      ],
      [
        "Ġde",
        "ed"
      ],
      [
        "EN",
        "IUS"
      ],
      [
        "Ġsp",
        "eed"
      ],
      [
        "ROM",
        "EO"
      ],
      [
        "Ġremem",
        "ber"
      ],
      [
        "MEN",
        "ENIUS"
      ],
      [
        "C",
        "LA"
      ],
      [
        "D",
        "ROM"
      ],
      [
        "K",
        "ATHERINE"
      ],
      [
        "Ġ",
        "est"
      ],
      [
        "Ġm",
        "outh"
      ],
      [
        "al",
        "t"
      ],
      [
        "Ġre",
        "d"
      ],
      [
        "Ġfa",
        "st"
      ],
      [
        "Ġpre",
        "t"
      ],
      [
        "Ġent",
        "reat"
      ],
      [
        "CLA",
        "U"
      ],
      [
        "DROM",
        "IO"
      ],
      [
        "u",
        "nd"
      ],
      [
        "Ġm",
        "oney"
      ],
      [
        "Ġw",
        "ret"
      ],
      [
        "Ġc",
        "le"
      ],
      [
        "Ġg",
        "ar"
      ],
      [
        "Ġkn",
        "ave"
      ],
      [
        "Ġthem",
        "selves"
      ],
      [
        "Ġr",
        "ing"
      ],
      [
        "IS",
        "A"
      ],
      [
        "Ġmer",
        "ry"
      ],
      [
        "eth",
        "inks"
      ],
      [
        "Ġserv",
        "ant"
      ],
      [
        "Ġchan",
        "ge"
      ],
      [
        "S",
        "U"
      ],
      [
        "Ġw",
        "he"
      ],
      [
        "it",
        "ies"
      ],
      [
        "Ġbe",
        "at"
      ],
      [
        "EN",
        "CE"
      ],
      [
        "Ġne",
        "ither"
      ],
      [
        "Ġwor",
        "se"
      ],
      [
        "Ġbo",
        "som"
      ],
      [
        "BER",
        "OW"
      ],
      [
        "Ġsovere",
        "ign"
      ],
      [
        "CLAU",
        "DIO"
      ],
      [
        "BEROW",
        "NE"
      ],
      [
        "A",
        "S"
      ],
      [
        "a",
        "z"
      ],
      [
        "p",
        "r"
      ],
      [
        "Ġw",
        "oo"
      ],
      [
        "Ġb",
        "ase"
      ],
      [
        "on",
        "es"
      ],
      [
        "ĠM",
        "arry"
      ],
      [
        "Ġcan",
        "st"
      ],
      [
        "RU",
        "CHIO"
      ],
      [
        "ĠEar",
        "th"
      ],
      [
        "Ġvo",
        "ice"
      ],
      [
        "PET",
        "RUCHIO"
      ],
      [
        "H",
        "ad"
      ],
      [
        "m",
        "ber"
      ],
      [
        "re",
        "ady"
      ],
      [
        "ot",
        "e"
      ],
      [
        "Ġg",
        "ro"
      ],
      [
        "al",
        "m"
      ],
      [
        "Ġne",
        "xt"
      ],
      [
        "Ġpr",
        "in"
      ],
      [
        "ull",
        "y"
      ],
      [
        "Ġfe",
        "el"
      ],
      [
        "!",
        "\""
      ],
      [
        "Ġt",
        "a"
      ],
      [
        "Ġha",
        "ir"
      ],
      [
        "ea",
        "ch"
      ],
      [
        "Ġse",
        "lf"
      ],
      [
        "ĠG",
        "ive"
      ],
      [
        "au",
        "d"
      ],
      [
        "Ġhast",
        "e"
      ],
      [
        "ID",
        "A"
      ],
      [
        "Ġfare",
        "well"
      ],
      [
        "A",
        "P"
      ],
      [
        "Ġl",
        "am"
      ],
      [
        "oth",
        "ing"
      ],
      [
        "Ġpo",
        "int"
      ],
      [
        "ĠEng",
        "lish"
      ],
      [
        "i",
        "xt"
      ],
      [
        "s",
        "es"
      ],
      [
        "ĠW",
        "ith"
      ],
      [
        "Ġsa",
        "ve"
      ],
      [
        "Ġsc",
        "orn"
      ],
      [
        "Ġgl",
        "ad"
      ],
      [
        "Ġsold",
        "ier"
      ],
      [
        "Ġem",
        "b"
      ],
      [
        "i",
        "res"
      ],
      [
        "Ġd",
        "ark"
      ],
      [
        "Ġd",
        "uty"
      ],
      [
        "Ġfa",
        "vor"
      ],
      [
        "ort",
        "une"
      ],
      [
        "ĠY",
        "es"
      ],
      [
        "Ġstra",
        "ight"
      ],
      [
        "C",
        "RESS"
      ],
      [
        "Ġth",
        "ri"
      ],
      [
        "Ġp",
        "en"
      ],
      [
        "all",
        "y"
      ],
      [
        "ĠR",
        "ichard"
      ],
      [
        "PAND",
        "ARUS"
      ],
      [
        "CRESS",
        "IDA"
      ],
      [
        "T",
        "OB"
      ],
      [
        "f",
        "ter"
      ],
      [
        "i",
        "ves"
      ],
      [
        "ENT",
        "INE"
      ],
      [
        "Ġtra",
        "itor"
      ],
      [
        "Ġdi",
        "v"
      ],
      [
        "BEL",
        "LA"
      ],
      [
        "Ġsomet",
        "hing"
      ],
      [
        "VAL",
        "ENTINE"
      ],
      [
        "TOB",
        "Y"
      ],
      [
        "c",
        "a"
      ],
      [
        "g",
        "ar"
      ],
      [
        "Ġc",
        "r"
      ],
      [
        "ĠM",
        "AR"
      ],
      [
        "ĠL",
        "ady"
      ],
      [
        "Ġqu",
        "estion"
      ],
      [
        "LO",
        "W"
      ],
      [
        "Ġgentle",
        "men"
      ],
      [
        "Ġatt",
        "end"
      ],
      [
        "S",
        "hould"
      ],
      [
        "c",
        "ester"
      ],
      [
        "Ġb",
        "ad"
      ],
      [
        "Ġc",
        "oward"
      ],
      [
        "us",
        "ed"
      ],
      [
        "Ġwh",
        "ite"
      ],
      [
        "Ġstre",
        "ng"
      ],
      [
        "VOL",
        "IO"
      ],
      [
        "Ġw",
        "alk"
      ],
      [
        "Ġb",
        "att"
      ],
      [
        "Ġto",
        "day"
      ],
      [
        "ri",
        "age"
      ],
      [
        "ra",
        "h"
      ],
      [
        "IOL",
        "ANUS"
      ],
      [
        "COR",
        "IOLANUS"
      ],
      [
        "T",
        "EUS"
      ],
      [
        "g",
        "es"
      ],
      [
        "h",
        "ood"
      ],
      [
        "n",
        "ight"
      ],
      [
        "p",
        "are"
      ],
      [
        "Ġc",
        "ast"
      ],
      [
        "Ġc",
        "reat"
      ],
      [
        "Ġh",
        "ur"
      ],
      [
        "Ġto",
        "ward"
      ],
      [
        "Ġdo",
        "g"
      ],
      [
        "ĠC",
        "h"
      ],
      [
        "OL",
        "D"
      ],
      [
        "Ġspo",
        "ke"
      ],
      [
        "PRO",
        "TEUS"
      ],
      [
        "Ġo",
        "pp"
      ],
      [
        "en",
        "ess"
      ],
      [
        "Ġnot",
        "e"
      ],
      [
        "ain",
        "ed"
      ],
      [
        "Ġsp",
        "ort"
      ],
      [
        "AT",
        "O"
      ],
      [
        "Ġson",
        "s"
      ],
      [
        "Ġapp",
        "ro"
      ],
      [
        "Ġhar",
        "m"
      ],
      [
        "Ġwo",
        "nder"
      ],
      [
        "ANTON",
        "IO"
      ],
      [
        "SH",
        "AL"
      ],
      [
        "Ġval",
        "iant"
      ],
      [
        "Ġop",
        "en"
      ],
      [
        "Ġwat",
        "er"
      ],
      [
        "ĠMAR",
        "GARET"
      ],
      [
        "C",
        "AL"
      ],
      [
        "H",
        "OST"
      ],
      [
        "c",
        "her"
      ],
      [
        "Ġ",
        "ord"
      ],
      [
        "Ġw",
        "hi"
      ],
      [
        "ha",
        "ve"
      ],
      [
        "it",
        "es"
      ],
      [
        "Ġp",
        "ale"
      ],
      [
        "il",
        "ed"
      ],
      [
        "Ġsp",
        "eech"
      ],
      [
        "ĠL",
        "ook"
      ],
      [
        "aint",
        "ed"
      ],
      [
        "Ġjust",
        "ice"
      ],
      [
        "MAC",
        "BETH"
      ],
      [
        "S",
        "ince"
      ],
      [
        "u",
        "nt"
      ],
      [
        "Ġw",
        "atch"
      ],
      [
        "Ġto",
        "wn"
      ],
      [
        "Ġcom",
        "ing"
      ],
      [
        "fe",
        "it"
      ],
      [
        "O",
        "ne"
      ],
      [
        "U",
        "T"
      ],
      [
        "l",
        "ou"
      ],
      [
        "um",
        "b"
      ],
      [
        "Ġdid",
        "st"
      ],
      [
        "Ġqu",
        "ar"
      ],
      [
        "Ġpresent",
        "ly"
      ],
      [
        "M",
        "ake"
      ],
      [
        "m",
        "ore"
      ],
      [
        "Ġs",
        "at"
      ],
      [
        "Ġl",
        "au"
      ],
      [
        "Ġre",
        "g"
      ],
      [
        "Th",
        "us"
      ],
      [
        "Ġne",
        "eds"
      ],
      [
        "Ġpl",
        "uck"
      ],
      [
        "Ġal",
        "most"
      ],
      [
        "Ġfl",
        "esh"
      ],
      [
        "ag",
        "ue"
      ],
      [
        "Ġlie",
        "ge"
      ],
      [
        "Ġres",
        "pect"
      ],
      [
        "dd",
        "en"
      ],
      [
        "Ġca",
        "pt"
      ],
      [
        "Ġreven",
        "ge"
      ],
      [
        "c",
        "he"
      ],
      [
        "g",
        "ment"
      ],
      [
        "Ġa",
        "ction"
      ],
      [
        "Ġf",
        "ra"
      ],
      [
        "ir",
        "m"
      ],
      [
        "OL",
        "LES"
      ],
      [
        "KING",
        "HAM"
      ],
      [
        "ĠJ",
        "OHN"
      ],
      [
        "UC",
        "KINGHAM"
      ],
      [
        "PAR",
        "OLLES"
      ],
      [
        "\"",
        "?"
      ],
      [
        "B",
        "UCKINGHAM"
      ],
      [
        "F",
        "L"
      ],
      [
        "N",
        "OR"
      ],
      [
        "Ġt",
        "it"
      ],
      [
        "Ġl",
        "ust"
      ],
      [
        "al",
        "s"
      ],
      [
        "ĠH",
        "el"
      ],
      [
        "ER",
        "D"
      ],
      [
        "Ġtw",
        "enty"
      ],
      [
        "Ġhour",
        "s"
      ],
      [
        "ĠBr",
        "utus"
      ],
      [
        "A",
        "gainst"
      ],
      [
        "i",
        "p"
      ],
      [
        "in",
        "es"
      ],
      [
        "Ġm",
        "ortal"
      ],
      [
        "Ġc",
        "ity"
      ],
      [
        "Ġl",
        "ack"
      ],
      [
        "Ġu",
        "nt"
      ],
      [
        "ire",
        "d"
      ],
      [
        "Ġmar",
        "ried"
      ],
      [
        "LEON",
        "ATO"
      ],
      [
        "B",
        "AN"
      ],
      [
        "C",
        "om"
      ],
      [
        "P",
        "AL"
      ],
      [
        "b",
        "ert"
      ],
      [
        "g",
        "ing"
      ],
      [
        "re",
        "l"
      ],
      [
        "Ġst",
        "ir"
      ],
      [
        "ES",
        "US"
      ],
      [
        "ĠE",
        "PH"
      ],
      [
        "Ġoff",
        "end"
      ],
      [
        "AM",
        "ON"
      ],
      [
        "Ġtr",
        "ou"
      ],
      [
        "Ġad",
        "d"
      ],
      [
        "Ġmo",
        "on"
      ],
      [
        "Ġstand",
        "s"
      ],
      [
        "PAL",
        "AMON"
      ],
      [
        "ĠEPH",
        "ESUS"
      ],
      [
        "F",
        "ORD"
      ],
      [
        "Ġhe",
        "ir"
      ],
      [
        "Ġlo",
        "ss"
      ],
      [
        "ru",
        "st"
      ],
      [
        "Ġpr",
        "ithee"
      ],
      [
        "ĠHe",
        "ctor"
      ],
      [
        "FF",
        "OLK"
      ],
      [
        "Ġper",
        "for"
      ],
      [
        "CASS",
        "IUS"
      ],
      [
        "SU",
        "FFOLK"
      ],
      [
        "Ġstreng",
        "th"
      ],
      [
        "T",
        "ake"
      ],
      [
        "Ġm",
        "od"
      ],
      [
        "Ġh",
        "ide"
      ],
      [
        "et",
        "er"
      ],
      [
        "Ġu",
        "nd"
      ],
      [
        "um",
        "ber"
      ],
      [
        "Ġheaven",
        "s"
      ],
      [
        "ED",
        "ICK"
      ],
      [
        "BEN",
        "EDICK"
      ],
      [
        "A",
        "l"
      ],
      [
        "G",
        "R"
      ],
      [
        "b",
        "it"
      ],
      [
        "Ġt",
        "y"
      ],
      [
        "Ġw",
        "ars"
      ],
      [
        "Ġbe",
        "come"
      ],
      [
        "Ġfor",
        "b"
      ],
      [
        "The",
        "ir"
      ],
      [
        "ES",
        "AR"
      ],
      [
        "Ġr",
        "as"
      ],
      [
        "ci",
        "ence"
      ],
      [
        "CA",
        "ESAR"
      ],
      [
        "Ġden",
        "y"
      ],
      [
        "SHAL",
        "LOW"
      ],
      [
        "Ġg",
        "rant"
      ],
      [
        "Ġin",
        "ter"
      ],
      [
        "row",
        "s"
      ],
      [
        "Ġbo",
        "nd"
      ],
      [
        "Ġal",
        "ready"
      ],
      [
        "Ġsl",
        "ain"
      ],
      [
        "Ġcl",
        "ose"
      ],
      [
        "I",
        "ER"
      ],
      [
        "W",
        "h"
      ],
      [
        "o",
        "ver"
      ],
      [
        "Ġs",
        "ense"
      ],
      [
        "Ġw",
        "ild"
      ],
      [
        "Ġbe",
        "ast"
      ],
      [
        "ĠA",
        "l"
      ],
      [
        "bl",
        "es"
      ],
      [
        "Ġwit",
        "hal"
      ],
      [
        "Ġfea",
        "st"
      ],
      [
        "Ġmorn",
        "ing"
      ],
      [
        "lou",
        "cester"
      ],
      [
        "M",
        "ust"
      ],
      [
        "P",
        "ORT"
      ],
      [
        "m",
        "and"
      ],
      [
        "Ġc",
        "lo"
      ],
      [
        "ol",
        "k"
      ],
      [
        "Ġpl",
        "ain"
      ],
      [
        "Ġapp",
        "ear"
      ],
      [
        "PORT",
        "IA"
      ],
      [
        "C",
        "IT"
      ],
      [
        "T",
        "RO"
      ],
      [
        "d",
        "ge"
      ],
      [
        "r",
        "s"
      ],
      [
        "Ġt",
        "ouch"
      ],
      [
        "ll",
        "ent"
      ],
      [
        "Ġd",
        "ire"
      ],
      [
        "as",
        "hi"
      ],
      [
        "AR",
        "CIT"
      ],
      [
        "Ġv",
        "ile"
      ],
      [
        "IL",
        "US"
      ],
      [
        "TRO",
        "ILUS"
      ],
      [
        "ARCIT",
        "E"
      ],
      [
        "H",
        "OR"
      ],
      [
        "e",
        "em"
      ],
      [
        "Ġm",
        "ount"
      ],
      [
        "Ġw",
        "all"
      ],
      [
        "Ġc",
        "ap"
      ],
      [
        "Ġl",
        "ow"
      ],
      [
        "en",
        "ch"
      ],
      [
        "Ġan",
        "g"
      ],
      [
        "em",
        "pt"
      ],
      [
        "Ġsw",
        "orn"
      ],
      [
        "TI",
        "TUS"
      ],
      [
        "Ġbeg",
        "in"
      ],
      [
        "BO",
        "T"
      ],
      [
        "Ġdre",
        "ad"
      ],
      [
        "D",
        "WARD"
      ],
      [
        "M",
        "ost"
      ],
      [
        "p",
        "es"
      ],
      [
        "s",
        "h"
      ],
      [
        "v",
        "ol"
      ],
      [
        "ou",
        "n"
      ],
      [
        "Ġm",
        "ot"
      ],
      [
        "Ġb",
        "ook"
      ],
      [
        "oo",
        "p"
      ],
      [
        "Ġsha",
        "d"
      ],
      [
        "Ġsu",
        "dden"
      ],
      [
        "ĠE",
        "DWARD"
      ],
      [
        "Ġbre",
        "ast"
      ],
      [
        "Ġking",
        "dom"
      ],
      [
        "S",
        "ay"
      ],
      [
        "n",
        "y"
      ],
      [
        "o",
        "ll"
      ],
      [
        "Ġ",
        "id"
      ],
      [
        "Ġs",
        "igh"
      ],
      [
        "as",
        "k"
      ],
      [
        "Ġso",
        "ft"
      ],
      [
        "Ġkn",
        "e"
      ],
      [
        "ĠP",
        "er"
      ],
      [
        "Ġthan",
        "ks"
      ],
      [
        "Ġtru",
        "ly"
      ],
      [
        "Ġra",
        "ge"
      ],
      [
        "Ġgri",
        "e"
      ],
      [
        "ISA",
        "BELLA"
      ],
      [
        "D",
        "AU"
      ],
      [
        "G",
        "ON"
      ],
      [
        "c",
        "on"
      ],
      [
        "f",
        "fect"
      ],
      [
        "u",
        "ght"
      ],
      [
        "et",
        "ch"
      ],
      [
        "ro",
        "ke"
      ],
      [
        "Ġcon",
        "st"
      ],
      [
        "Ġj",
        "est"
      ],
      [
        "ĠTh",
        "y"
      ],
      [
        "Ġab",
        "s"
      ],
      [
        "Ġwr",
        "it"
      ],
      [
        "Ġsc",
        "ar"
      ],
      [
        "Ġsl",
        "ave"
      ],
      [
        "Ġpri",
        "v"
      ],
      [
        "A",
        "D"
      ],
      [
        "E",
        "W"
      ],
      [
        "M",
        "AL"
      ],
      [
        "i",
        "z"
      ],
      [
        "l",
        "er"
      ],
      [
        "r",
        "on"
      ],
      [
        "ha",
        "m"
      ],
      [
        "Ġha",
        "ving"
      ],
      [
        "Ġr",
        "an"
      ],
      [
        "Ġoff",
        "ice"
      ],
      [
        "Be",
        "fore"
      ],
      [
        "Ġchild",
        "ren"
      ],
      [
        "LUC",
        "IUS"
      ],
      [
        "B",
        "US"
      ],
      [
        "B",
        "UR"
      ],
      [
        "P",
        "OL"
      ],
      [
        "r",
        "ist"
      ],
      [
        "Ġc",
        "ross"
      ],
      [
        "Ġo",
        "b"
      ],
      [
        "Ġin",
        "d"
      ],
      [
        "OR",
        "LAND"
      ],
      [
        "Ġdis",
        "h"
      ],
      [
        "LEON",
        "TES"
      ],
      [
        "I",
        "ET"
      ],
      [
        "K",
        "ENT"
      ],
      [
        "O",
        "ut"
      ],
      [
        "S",
        "IC"
      ],
      [
        "S",
        "ee"
      ],
      [
        "c",
        "ri"
      ],
      [
        "i",
        "ence"
      ],
      [
        "s",
        "p"
      ],
      [
        "Ġlo",
        "ving"
      ],
      [
        "ant",
        "age"
      ],
      [
        "Ġhonor",
        "able"
      ],
      [
        "cl",
        "aim"
      ],
      [
        "JUL",
        "IET"
      ],
      [
        "'",
        "re"
      ],
      [
        "A",
        "h"
      ],
      [
        "e",
        "ath"
      ],
      [
        "Ġs",
        "hi"
      ],
      [
        "Ġm",
        "orrow"
      ],
      [
        "ra",
        "ge"
      ],
      [
        "AN",
        "G"
      ],
      [
        "ast",
        "ers"
      ],
      [
        "ĠF",
        "ortune"
      ],
      [
        "Ġwho",
        "le"
      ],
      [
        "Ġmo",
        "ck"
      ],
      [
        "be",
        "y"
      ],
      [
        "Ġspir",
        "its"
      ],
      [
        "I",
        "TI"
      ],
      [
        "R",
        "e"
      ],
      [
        "o",
        "ly"
      ],
      [
        "o",
        "ss"
      ],
      [
        "re",
        "m"
      ],
      [
        "Ġp",
        "it"
      ],
      [
        "ut",
        "ion"
      ],
      [
        "Ġre",
        "ady"
      ],
      [
        "Ġde",
        "eds"
      ],
      [
        "IN",
        "A"
      ],
      [
        "Ġfort",
        "unes"
      ],
      [
        "Ġkill",
        "ed"
      ],
      [
        "P",
        "IST"
      ],
      [
        "V",
        "IOL"
      ],
      [
        "t",
        "ing"
      ],
      [
        "is",
        "f"
      ],
      [
        "im",
        "on"
      ],
      [
        "Ġfor",
        "m"
      ],
      [
        "Ġst",
        "ru"
      ],
      [
        "Ġre",
        "l"
      ],
      [
        "ĠH",
        "a"
      ],
      [
        "ĠS",
        "hall"
      ],
      [
        "ress",
        "ed"
      ],
      [
        "Ġsold",
        "iers"
      ],
      [
        "PIST",
        "OL"
      ],
      [
        "VIOL",
        "A"
      ],
      [
        "Z",
        "A"
      ],
      [
        "a",
        "ith"
      ],
      [
        "Ġa",
        "g"
      ],
      [
        "Ġb",
        "le"
      ],
      [
        "en",
        "ge"
      ],
      [
        "at",
        "ure"
      ],
      [
        "Ġe",
        "ither"
      ],
      [
        "Ġe",
        "ffect"
      ],
      [
        "Ġli",
        "ving"
      ],
      [
        "Ġk",
        "ings"
      ],
      [
        "res",
        "h"
      ],
      [
        "Ġgi",
        "ves"
      ],
      [
        "Ġinst",
        "ru"
      ],
      [
        "k",
        "ing"
      ],
      [
        "n",
        "k"
      ],
      [
        "Ġm",
        "ess"
      ],
      [
        "Ġm",
        "ist"
      ],
      [
        "Ġw",
        "ound"
      ],
      [
        "Ġf",
        "at"
      ],
      [
        "Ġl",
        "im"
      ],
      [
        "Ġst",
        "eal"
      ],
      [
        "and",
        "er"
      ],
      [
        "ES",
        "EUS"
      ],
      [
        "TH",
        "ESEUS"
      ],
      [
        "IC",
        "LES"
      ],
      [
        "Ġad",
        "m"
      ],
      [
        "ĠLord",
        "ship"
      ],
      [
        "Ġent",
        "er"
      ],
      [
        "Ġunder",
        "stand"
      ],
      [
        "Ġres",
        "ol"
      ],
      [
        "Ġpass",
        "ion"
      ],
      [
        "PER",
        "ICLES"
      ],
      [
        "Ġstri",
        "ke"
      ],
      [
        "CO",
        "UNT"
      ],
      [
        "Ġpret",
        "ty"
      ],
      [
        "ORLAND",
        "O"
      ],
      [
        "G",
        "EN"
      ],
      [
        "l",
        "st"
      ],
      [
        "he",
        "ad"
      ],
      [
        "re",
        "y"
      ],
      [
        "Ġg",
        "ot"
      ],
      [
        "ak",
        "en"
      ],
      [
        "Ġspeak",
        "s"
      ],
      [
        "Ġpri",
        "de"
      ],
      [
        "Ġletter",
        "s"
      ],
      [
        "OLI",
        "VIA"
      ],
      [
        "'",
        "d"
      ],
      [
        "A",
        "r"
      ],
      [
        "S",
        "P"
      ],
      [
        "h",
        "is"
      ],
      [
        "h",
        "ind"
      ],
      [
        "y",
        "ing"
      ],
      [
        "Ġ",
        "ve"
      ],
      [
        "Ġb",
        "it"
      ],
      [
        "Ġf",
        "am"
      ],
      [
        "Ġfor",
        "ce"
      ],
      [
        "el",
        "come"
      ],
      [
        "IMO",
        "GEN"
      ],
      [
        "ashi",
        "on"
      ],
      [
        "SIC",
        "INIUS"
      ],
      [
        "P",
        "A"
      ],
      [
        "S",
        "uch"
      ],
      [
        "S",
        "PE"
      ],
      [
        "u",
        "ed"
      ],
      [
        "Ġp",
        "u"
      ],
      [
        "ri",
        "ght"
      ],
      [
        "ur",
        "se"
      ],
      [
        "ation",
        "s"
      ],
      [
        "IAN",
        "A"
      ],
      [
        "Ġtre",
        "ason"
      ],
      [
        "Ġseem",
        "s"
      ],
      [
        "SPE",
        "ED"
      ],
      [
        "f",
        "ord"
      ],
      [
        "nd",
        "red"
      ],
      [
        "it",
        "ed"
      ],
      [
        "ie",
        "u"
      ],
      [
        "ĠT",
        "ake"
      ],
      [
        "Ġdis",
        "g"
      ],
      [
        "Ġmar",
        "riage"
      ],
      [
        "ign",
        "ior"
      ],
      [
        "Ġwit",
        "ness"
      ],
      [
        "Ġhu",
        "ndred"
      ],
      [
        "Ġjud",
        "gment"
      ],
      [
        "S",
        "peak"
      ],
      [
        "e",
        "ep"
      ],
      [
        "w",
        "or"
      ],
      [
        "Ġf",
        "ing"
      ],
      [
        "ĠH",
        "ave"
      ],
      [
        "th",
        "ough"
      ],
      [
        "ĠM",
        "istress"
      ],
      [
        "ie",
        "w"
      ],
      [
        "Ġpo",
        "ison"
      ],
      [
        "ac",
        "ed"
      ],
      [
        "Ġsoul",
        "s"
      ],
      [
        "Ġgu",
        "ard"
      ],
      [
        "Ġsuff",
        "er"
      ],
      [
        "Ġposs",
        "ess"
      ],
      [
        "Ġbatt",
        "le"
      ],
      [
        "F",
        "arewell"
      ],
      [
        "f",
        "ully"
      ],
      [
        "i",
        "ct"
      ],
      [
        "m",
        "bl"
      ],
      [
        "Ġ",
        "ut"
      ],
      [
        "Ġm",
        "al"
      ],
      [
        "Ġd",
        "ied"
      ],
      [
        "Ġc",
        "ase"
      ],
      [
        "an",
        "cy"
      ],
      [
        "Ġis",
        "sue"
      ],
      [
        "ĠG",
        "loucester"
      ],
      [
        "Ġgo",
        "d"
      ],
      [
        "Ġcon",
        "qu"
      ],
      [
        "ul",
        "ts"
      ],
      [
        "EL",
        "O"
      ],
      [
        "Ġaf",
        "fection"
      ],
      [
        "Ġcons",
        "cience"
      ],
      [
        "Ġban",
        "ished"
      ],
      [
        "Ġenem",
        "ies"
      ],
      [
        "ANG",
        "ELO"
      ],
      [
        "L",
        "ord"
      ],
      [
        "P",
        "ROS"
      ],
      [
        "c",
        "ha"
      ],
      [
        "n",
        "ers"
      ],
      [
        "Ġf",
        "ill"
      ],
      [
        "Ġe",
        "as"
      ],
      [
        "ĠS",
        "EN"
      ],
      [
        "AR",
        "BUS"
      ],
      [
        "EN",
        "OB"
      ],
      [
        "Ġwould",
        "st"
      ],
      [
        "Ġal",
        "ong"
      ],
      [
        "Ġche",
        "er"
      ],
      [
        "PER",
        "O"
      ],
      [
        "Ġoft",
        "en"
      ],
      [
        "PROS",
        "PERO"
      ],
      [
        "ENOB",
        "ARBUS"
      ],
      [
        "L",
        "ANCE"
      ],
      [
        "T",
        "ell"
      ],
      [
        "Y",
        "M"
      ],
      [
        "Z",
        "EN"
      ],
      [
        "g",
        "g"
      ],
      [
        "k",
        "ind"
      ],
      [
        "n",
        "own"
      ],
      [
        "Ġt",
        "ale"
      ],
      [
        "Ġs",
        "ho"
      ],
      [
        "Ġli",
        "on"
      ],
      [
        "ĠW",
        "ould"
      ],
      [
        "Ġde",
        "li"
      ],
      [
        "Ġdo",
        "or"
      ],
      [
        "ant",
        "s"
      ],
      [
        "CH",
        "AR"
      ],
      [
        "um",
        "ph"
      ],
      [
        "Ġex",
        "ec"
      ],
      [
        "Ġcha",
        "mber"
      ],
      [
        "AT",
        "IO"
      ],
      [
        "Ġany",
        "thing"
      ],
      [
        "Ġval",
        "or"
      ],
      [
        "HOR",
        "ATIO"
      ],
      [
        "ITI",
        "ZEN"
      ],
      [
        "B",
        "OL"
      ],
      [
        "V",
        "ER"
      ],
      [
        "Ġs",
        "im"
      ],
      [
        "re",
        "ad"
      ],
      [
        "Ġc",
        "ru"
      ],
      [
        "Ġhe",
        "alth"
      ],
      [
        "an",
        "c"
      ],
      [
        "et",
        "y"
      ],
      [
        "ir",
        "d"
      ],
      [
        "Ġre",
        "b"
      ],
      [
        "ĠS",
        "peak"
      ],
      [
        "ON",
        "E"
      ],
      [
        "Ġchan",
        "ce"
      ],
      [
        "LUC",
        "IO"
      ],
      [
        "Ġbu",
        "y"
      ],
      [
        "Ġbless",
        "ed"
      ],
      [
        "CASS",
        "IO"
      ],
      [
        "Ġbir",
        "th"
      ],
      [
        "Ġtit",
        "le"
      ],
      [
        "P",
        "ro"
      ],
      [
        "i",
        "ent"
      ],
      [
        "Ġm",
        "ir"
      ],
      [
        "Ġp",
        "ost"
      ],
      [
        "Ġbe",
        "ars"
      ],
      [
        "se",
        "t"
      ],
      [
        "th",
        "is"
      ],
      [
        "ĠO",
        "ur"
      ],
      [
        "Ġlea",
        "st"
      ],
      [
        "eal",
        "ous"
      ],
      [
        "SH",
        "EPH"
      ],
      [
        "Ġaw",
        "hile"
      ],
      [
        "Ġac",
        "qu"
      ],
      [
        "OLD",
        "IER"
      ],
      [
        "SHEPH",
        "ERD"
      ],
      [
        "B",
        "RO"
      ],
      [
        "o",
        "int"
      ],
      [
        "w",
        "ould"
      ],
      [
        "Ġf",
        "ine"
      ],
      [
        "Ġd",
        "uke"
      ],
      [
        "Ġo",
        "bs"
      ],
      [
        "Ġe",
        "mp"
      ],
      [
        "ur",
        "al"
      ],
      [
        "ĠP",
        "AGE"
      ],
      [
        "ak",
        "ed"
      ],
      [
        "Ġab",
        "ove"
      ],
      [
        "AT",
        "RI"
      ],
      [
        "Be",
        "ing"
      ],
      [
        "Ġmight",
        "y"
      ],
      [
        "Ġlong",
        "er"
      ],
      [
        "Ġfe",
        "ed"
      ],
      [
        "DO",
        "CTOR"
      ],
      [
        "ĠCass",
        "io"
      ],
      [
        "Ġlad",
        "ies"
      ],
      [
        "C",
        "ELIA"
      ],
      [
        "c",
        "an"
      ],
      [
        "c",
        "al"
      ],
      [
        "e",
        "ad"
      ],
      [
        "y",
        "ed"
      ],
      [
        "Ġt",
        "each"
      ],
      [
        "Ġsa",
        "fe"
      ],
      [
        "ick",
        "ed"
      ],
      [
        "Ġoff",
        "ense"
      ],
      [
        "Ġke",
        "pt"
      ],
      [
        "Ġhead",
        "s"
      ],
      [
        "P",
        "AGE"
      ],
      [
        "c",
        "ent"
      ],
      [
        "u",
        "al"
      ],
      [
        "u",
        "nder"
      ],
      [
        "Ġd",
        "ull"
      ],
      [
        "Ġd",
        "rown"
      ],
      [
        "Ġsha",
        "r"
      ],
      [
        "ĠThe",
        "se"
      ],
      [
        "ĠE",
        "m"
      ],
      [
        "Ġsec",
        "ond"
      ],
      [
        "JUL",
        "IA"
      ],
      [
        "Ġ",
        "er"
      ],
      [
        "Ġs",
        "or"
      ],
      [
        "Ġp",
        "ain"
      ],
      [
        "Ġre",
        "vere"
      ],
      [
        "if",
        "y"
      ],
      [
        "um",
        "ent"
      ],
      [
        "ag",
        "es"
      ],
      [
        "Ġpart",
        "s"
      ],
      [
        "Ġla",
        "bor"
      ],
      [
        "Ġshow",
        "s"
      ],
      [
        "BE",
        "ATRI"
      ],
      [
        "Ġcur",
        "se"
      ],
      [
        "Ġhum",
        "or"
      ],
      [
        "Ġpati",
        "ent"
      ],
      [
        "Ġprin",
        "ces"
      ],
      [
        "BEATRI",
        "CE"
      ],
      [
        "S",
        "ERV"
      ],
      [
        "g",
        "in"
      ],
      [
        "m",
        "on"
      ],
      [
        "Ġ",
        "ign"
      ],
      [
        "Ġf",
        "ashion"
      ],
      [
        "ce",
        "pt"
      ],
      [
        "au",
        "nt"
      ],
      [
        "ĠD",
        "id"
      ],
      [
        "Ġwor",
        "st"
      ],
      [
        "Ġex",
        "c"
      ],
      [
        "Ġro",
        "b"
      ],
      [
        "ĠRome",
        "o"
      ],
      [
        "com",
        "es"
      ],
      [
        "Ġprom",
        "ise"
      ],
      [
        "Ġmurd",
        "er"
      ],
      [
        "Ġlau",
        "gh"
      ],
      [
        "Ġang",
        "ry"
      ],
      [
        "C",
        "L"
      ],
      [
        "C",
        "ESS"
      ],
      [
        "O",
        "T"
      ],
      [
        "he",
        "art"
      ],
      [
        "Ġw",
        "ent"
      ],
      [
        "Ġf",
        "ive"
      ],
      [
        "Ġbe",
        "hind"
      ],
      [
        "Ġfor",
        "get"
      ],
      [
        "Ġsu",
        "cc"
      ],
      [
        "Ġfa",
        "ults"
      ],
      [
        "ĠL",
        "uc"
      ],
      [
        "Ġqu",
        "al"
      ],
      [
        "Ġen",
        "c"
      ],
      [
        "ĠK",
        "ate"
      ],
      [
        "lo",
        "ve"
      ],
      [
        "Ġother",
        "s"
      ],
      [
        "UR",
        "DER"
      ],
      [
        "Ġsm",
        "all"
      ],
      [
        "PRIN",
        "CESS"
      ],
      [
        "Ġvirt",
        "uous"
      ],
      [
        "Ġremem",
        "b"
      ],
      [
        "Ġtem",
        "p"
      ],
      [
        "Ġvi",
        "ol"
      ],
      [
        "Ġexce",
        "llent"
      ],
      [
        "aud",
        "io"
      ],
      [
        "URDER",
        "ER"
      ],
      [
        "L",
        "EN"
      ],
      [
        "a",
        "ves"
      ],
      [
        "h",
        "ow"
      ],
      [
        "ing",
        "ly"
      ],
      [
        "le",
        "ep"
      ],
      [
        "Ġse",
        "al"
      ],
      [
        "Ġan",
        "ge"
      ],
      [
        "ĠA",
        "re"
      ],
      [
        "il",
        "s"
      ],
      [
        "Ġv",
        "iew"
      ],
      [
        "Ġour",
        "selves"
      ],
      [
        "ast",
        "ard"
      ],
      [
        "ard",
        "in"
      ],
      [
        "Ġlook",
        "ed"
      ],
      [
        "Ġwr",
        "ite"
      ],
      [
        "per",
        "or"
      ],
      [
        "Ġch",
        "oose"
      ],
      [
        "ĠCh",
        "rist"
      ],
      [
        "A",
        "las"
      ],
      [
        "H",
        "OT"
      ],
      [
        "b",
        "orn"
      ],
      [
        "e",
        "g"
      ],
      [
        "Ġb",
        "a"
      ],
      [
        "Ġb",
        "ow"
      ],
      [
        "er",
        "ve"
      ],
      [
        "Ġo",
        "cc"
      ],
      [
        "ra",
        "ct"
      ],
      [
        "ĠS",
        "ay"
      ],
      [
        "AR",
        "MA"
      ],
      [
        "ĠA",
        "las"
      ],
      [
        "ĠP",
        "eace"
      ],
      [
        "ĠF",
        "arewell"
      ],
      [
        "ĠE",
        "LI"
      ],
      [
        "ĠT",
        "ell"
      ],
      [
        "the",
        "m"
      ],
      [
        "Ġpres",
        "ence"
      ],
      [
        "BER",
        "TR"
      ],
      [
        "Ġent",
        "ertain"
      ],
      [
        "led",
        "ge"
      ],
      [
        "Ġcons",
        "ent"
      ],
      [
        "Ġturn",
        "ed"
      ],
      [
        "Ġdel",
        "ight"
      ],
      [
        "Ġdep",
        "art"
      ],
      [
        "Ġsat",
        "isf"
      ],
      [
        "ZA",
        "BETH"
      ],
      [
        "SP",
        "UR"
      ],
      [
        "HOT",
        "SPUR"
      ],
      [
        "ARMA",
        "DO"
      ],
      [
        "ĠELI",
        "ZABETH"
      ],
      [
        "BERTR",
        "AM"
      ],
      [
        "G",
        "U"
      ],
      [
        "M",
        "adam"
      ],
      [
        "P",
        "OM"
      ],
      [
        "o",
        "llow"
      ],
      [
        "Ġw",
        "ed"
      ],
      [
        "Ġf",
        "resh"
      ],
      [
        "as",
        "ion"
      ],
      [
        "ra",
        "w"
      ],
      [
        "Ġso",
        "le"
      ],
      [
        "th",
        "ou"
      ],
      [
        "ru",
        "pt"
      ],
      [
        "um",
        "e"
      ],
      [
        "Ġr",
        "ound"
      ],
      [
        "Ġpro",
        "ceed"
      ],
      [
        "Ġtru",
        "mp"
      ],
      [
        "ANT",
        "US"
      ],
      [
        "Ġmo",
        "ve"
      ],
      [
        "EM",
        "ANTUS"
      ],
      [
        "os",
        "ition"
      ],
      [
        "RE",
        "Y"
      ],
      [
        "PE",
        "Y"
      ],
      [
        "Ġdanger",
        "ous"
      ],
      [
        "Ġdam",
        "ned"
      ],
      [
        "AP",
        "EMANTUS"
      ],
      [
        "POM",
        "PEY"
      ],
      [
        "N",
        "UR"
      ],
      [
        "u",
        "de"
      ],
      [
        "Ġy",
        "o"
      ],
      [
        "Ġy",
        "ear"
      ],
      [
        "an",
        "ch"
      ],
      [
        "Ġst",
        "ar"
      ],
      [
        "Ġv",
        "ain"
      ],
      [
        "Ġbl",
        "ow"
      ],
      [
        "ED",
        "GAR"
      ],
      [
        "Ġbri",
        "ght"
      ],
      [
        "Ġquick",
        "ly"
      ],
      [
        "Ġhur",
        "t"
      ],
      [
        "COUNT",
        "ESS"
      ],
      [
        "Ġcru",
        "el"
      ],
      [
        "NUR",
        "SE"
      ],
      [
        "D",
        "E"
      ],
      [
        "Ġs",
        "n"
      ],
      [
        "Ġm",
        "id"
      ],
      [
        "Ġw",
        "ast"
      ],
      [
        "Ġb",
        "reat"
      ],
      [
        "Ġth",
        "row"
      ],
      [
        "Ġbe",
        "ard"
      ],
      [
        "ver",
        "n"
      ],
      [
        "ĠH",
        "arry"
      ],
      [
        "il",
        "ty"
      ],
      [
        "Ġam",
        "ong"
      ],
      [
        "OL",
        "PH"
      ],
      [
        "Ġbl",
        "ind"
      ],
      [
        "ĠR",
        "oman"
      ],
      [
        "ARD",
        "OLPH"
      ],
      [
        "Ġper",
        "ceive"
      ],
      [
        "Ġgold",
        "en"
      ],
      [
        "Ġwis",
        "dom"
      ],
      [
        "A",
        "way"
      ],
      [
        "F",
        "EW"
      ],
      [
        "p",
        "her"
      ],
      [
        "u",
        "ri"
      ],
      [
        "Ġw",
        "on"
      ],
      [
        "Ġd",
        "a"
      ],
      [
        "Ġde",
        "c"
      ],
      [
        "Ġher",
        "self"
      ],
      [
        "IN",
        "O"
      ],
      [
        "ĠA",
        "d"
      ],
      [
        "il",
        "es"
      ],
      [
        "ĠP",
        "ar"
      ],
      [
        "ĠP",
        "om"
      ],
      [
        "Ġgo",
        "ing"
      ],
      [
        "CH",
        "ESS"
      ],
      [
        "Ġqu",
        "oth"
      ],
      [
        "Ġqu",
        "iet"
      ],
      [
        "SE",
        "BAST"
      ],
      [
        "LA",
        "FEW"
      ],
      [
        "ap",
        "er"
      ],
      [
        "DU",
        "CHESS"
      ],
      [
        "Ġfool",
        "ish"
      ],
      [
        "Ġbri",
        "ef"
      ],
      [
        "SEBAST",
        "IAN"
      ],
      [
        "P",
        "O"
      ],
      [
        "U",
        "LET"
      ],
      [
        "W",
        "hi"
      ],
      [
        "j",
        "oy"
      ],
      [
        "p",
        "ed"
      ],
      [
        "Ġf",
        "etch"
      ],
      [
        "Ġd",
        "in"
      ],
      [
        "Ġp",
        "ure"
      ],
      [
        "le",
        "x"
      ],
      [
        "Ġme",
        "asure"
      ],
      [
        "ĠS",
        "ERV"
      ],
      [
        "il",
        "us"
      ],
      [
        "AT",
        "OR"
      ],
      [
        "Ġtr",
        "oth"
      ],
      [
        "Ġcomm",
        "end"
      ],
      [
        "Ġpray",
        "ers"
      ],
      [
        "St",
        "and"
      ],
      [
        "tw",
        "ere"
      ],
      [
        "Un",
        "less"
      ],
      [
        "BAST",
        "ARD"
      ],
      [
        "Ġdeli",
        "ver"
      ],
      [
        "S",
        "weet"
      ],
      [
        "U",
        "GH"
      ],
      [
        "r",
        "or"
      ],
      [
        "r",
        "ate"
      ],
      [
        "in",
        "ion"
      ],
      [
        "is",
        "es"
      ],
      [
        "al",
        "b"
      ],
      [
        "ĠM",
        "ay"
      ],
      [
        "ĠC",
        "ITIZEN"
      ],
      [
        "il",
        "ity"
      ],
      [
        "ĠL",
        "u"
      ],
      [
        "LE",
        "BE"
      ],
      [
        "Ġar",
        "g"
      ],
      [
        "Ġj",
        "ew"
      ],
      [
        "Ġfl",
        "atter"
      ],
      [
        "Ġcha",
        "st"
      ],
      [
        "the",
        "e"
      ],
      [
        "Ġch",
        "ur"
      ],
      [
        "Ġpra",
        "ct"
      ],
      [
        "Ġbit",
        "ter"
      ],
      [
        "Ġshar",
        "p"
      ],
      [
        "LEBE",
        "IAN"
      ],
      [
        "B",
        "IAN"
      ],
      [
        "C",
        "on"
      ],
      [
        "S",
        "A"
      ],
      [
        "a",
        "x"
      ],
      [
        "b",
        "ury"
      ],
      [
        "d",
        "o"
      ],
      [
        "d",
        "ing"
      ],
      [
        "g",
        "ood"
      ],
      [
        "w",
        "here"
      ],
      [
        "Ġs",
        "ch"
      ],
      [
        "Ġf",
        "ier"
      ],
      [
        "Ġe",
        "vil"
      ],
      [
        "are",
        "nce"
      ],
      [
        "Ġoff",
        "er"
      ],
      [
        "itt",
        "ed"
      ],
      [
        "bl",
        "ed"
      ],
      [
        "Ġfool",
        "s"
      ],
      [
        "BA",
        "SS"
      ],
      [
        "Ġcoun",
        "ter"
      ],
      [
        "Wh",
        "om"
      ],
      [
        "H",
        "UM"
      ],
      [
        "S",
        "I"
      ],
      [
        "S",
        "AL"
      ],
      [
        "U",
        "nder"
      ],
      [
        "ar",
        "ge"
      ],
      [
        "Ġp",
        "iece"
      ],
      [
        "Ġe",
        "le"
      ],
      [
        "Ġst",
        "ud"
      ],
      [
        "Ġsha",
        "ke"
      ],
      [
        "ĠL",
        "ove"
      ],
      [
        "ic",
        "ul"
      ],
      [
        "Ġj",
        "ealous"
      ],
      [
        "Ġpro",
        "v"
      ],
      [
        "Ġfear",
        "ful"
      ],
      [
        "Ġord",
        "er"
      ],
      [
        "Ġquar",
        "rel"
      ],
      [
        "Ġsor",
        "ry"
      ],
      [
        "N",
        "ES"
      ],
      [
        "Ġd",
        "est"
      ],
      [
        "ar",
        "ch"
      ],
      [
        "id",
        "er"
      ],
      [
        "Ġli",
        "ved"
      ],
      [
        "ĠA",
        "way"
      ],
      [
        "ON",
        "IUS"
      ],
      [
        "Ġne",
        "igh"
      ],
      [
        "Ġpr",
        "ot"
      ],
      [
        "Ġsa",
        "f"
      ],
      [
        "ĠR",
        "I"
      ],
      [
        "ĠJ",
        "ul"
      ],
      [
        "ci",
        "us"
      ],
      [
        "Be",
        "cause"
      ],
      [
        "Ġcall",
        "s"
      ],
      [
        "Ġsm",
        "o"
      ],
      [
        "tw",
        "as"
      ],
      [
        "BRO",
        "KE"
      ],
      [
        "S",
        "IR"
      ],
      [
        "v",
        "ia"
      ],
      [
        "Ġt",
        "ent"
      ],
      [
        "Ġm",
        "ed"
      ],
      [
        "st",
        "ance"
      ],
      [
        "Ġfor",
        "sw"
      ],
      [
        "id",
        "ed"
      ],
      [
        "ur",
        "st"
      ],
      [
        "ĠC",
        "an"
      ],
      [
        "ING",
        "MAN"
      ],
      [
        "lo",
        "ck"
      ],
      [
        "Ġla",
        "id"
      ],
      [
        "Ġgl",
        "ory"
      ],
      [
        "THER",
        "S"
      ],
      [
        "Ġgre",
        "en"
      ],
      [
        "TR",
        "ANIO"
      ],
      [
        "ardin",
        "al"
      ],
      [
        "B",
        "et"
      ],
      [
        "C",
        "AM"
      ],
      [
        "Ġs",
        "ort"
      ],
      [
        "Ġm",
        "asters"
      ],
      [
        "Ġw",
        "ood"
      ],
      [
        "re",
        "ed"
      ],
      [
        "Ġd",
        "ri"
      ],
      [
        "Ġin",
        "no"
      ],
      [
        "ir",
        "c"
      ],
      [
        "Ġsha",
        "pe"
      ],
      [
        "ĠM",
        "URDERER"
      ],
      [
        "ru",
        "e"
      ],
      [
        "Ġbl",
        "ame"
      ],
      [
        "Ġpl",
        "ague"
      ],
      [
        "pe",
        "y"
      ],
      [
        "Ġal",
        "ive"
      ],
      [
        "CA",
        "P"
      ],
      [
        "ĠCl",
        "audio"
      ],
      [
        "Ġlear",
        "n"
      ],
      [
        "BUR",
        "Y"
      ],
      [
        "I",
        "nto"
      ],
      [
        "O",
        "S"
      ],
      [
        "R",
        "IUS"
      ],
      [
        "V",
        "IUS"
      ],
      [
        "e",
        "as"
      ],
      [
        "w",
        "hat"
      ],
      [
        "w",
        "oman"
      ],
      [
        "Ġ",
        "et"
      ],
      [
        "Ġ",
        "ver"
      ],
      [
        "Ġf",
        "rown"
      ],
      [
        "Ġl",
        "end"
      ],
      [
        "Ġn",
        "aught"
      ],
      [
        "Ġp",
        "al"
      ],
      [
        "ch",
        "ief"
      ],
      [
        "Ġli",
        "bert"
      ],
      [
        "am",
        "es"
      ],
      [
        "Ġkn",
        "ock"
      ],
      [
        "ĠF",
        "ool"
      ],
      [
        "OR",
        "A"
      ],
      [
        "here",
        "d"
      ],
      [
        "ĠT",
        "imon"
      ],
      [
        "Ġfl",
        "ed"
      ],
      [
        "Ġbre",
        "ed"
      ],
      [
        "RI",
        "AN"
      ],
      [
        "Ġsum",
        "mer"
      ],
      [
        "ĠRI",
        "CHARD"
      ],
      [
        "D",
        "oth"
      ],
      [
        "E",
        "x"
      ],
      [
        "I",
        "P"
      ],
      [
        "s",
        "u"
      ],
      [
        "Ġt",
        "aken"
      ],
      [
        "er",
        "v"
      ],
      [
        "es",
        "ides"
      ],
      [
        "Ġc",
        "arry"
      ],
      [
        "Ġo",
        "bey"
      ],
      [
        "Ġp",
        "ains"
      ],
      [
        "Ġin",
        "v"
      ],
      [
        "ill",
        "es"
      ],
      [
        "Ġe",
        "qu"
      ],
      [
        "Ġst",
        "op"
      ],
      [
        "ĠH",
        "onor"
      ],
      [
        "ea",
        "ven"
      ],
      [
        "AN",
        "NE"
      ],
      [
        "Ġno",
        "ise"
      ],
      [
        "ter",
        "s"
      ],
      [
        "Ġour",
        "s"
      ],
      [
        "art",
        "ius"
      ],
      [
        "Ġsw",
        "ift"
      ],
      [
        "ĠT",
        "y"
      ],
      [
        "un",
        "ning"
      ],
      [
        "Ġhon",
        "esty"
      ],
      [
        "Ġgreat",
        "er"
      ],
      [
        "ors",
        "hip"
      ],
      [
        "ET",
        "RIUS"
      ],
      [
        "Ġwh",
        "ore"
      ]
    ]
  }
}